{
  "vocab": {
    "<unk>": 0,
    "<pad>": 1,
    "<bos>": 2,
    "<eos>": 3,
    "!": 4,
    "\"": 5,
    "#": 6,
    "$": 7,
    "%": 8,
    "&": 9,
    "'": 10,
    "(": 11,
    ")": 12,
    "*": 13,
    "+": 14,
    ",": 15,
    "-": 16,
    ".": 17,
    "/": 18,
    "0": 19,
    "1": 20,
    "2": 21,
    "3": 22,
    "4": 23,
    "5": 24,
    "6": 25,
    "7": 26,
    "8": 27,
    "9": 28,
    ":": 29,
    ";": 30,
    "<": 31,
    "=": 32,
    ">": 33,
    "?": 34,
    "@": 35,
    "A": 36,
    "B": 37,
    "C": 38,
    "D": 39,
    "E": 40,
    "F": 41,
    "G": 42,
    "H": 43,
    "I": 44,
    "J": 45,
    "K": 46,
    "L": 47,
    "M": 48,
    "N": 49,
    "O": 50,
    "P": 51,
    "Q": 52,
    "R": 53,
    "S": 54,
    "T": 55,
    "U": 56,
    "V": 57,
    "W": 58,
    "X": 59,
    "Y": 60,
    "Z": 61,
    "[": 62,
    "\\": 63,
    "]": 64,
    "^": 65,
    "_": 66,
    "`": 67,
    "a": 68,
    "b": 69,
    "c": 70,
    "d": 71,
    "e": 72,
    "f": 73,
    "g": 74,
    "h": 75,
    "i": 76,
    "j": 77,
    "k": 78,
    "l": 79,
    "m": 80,
    "n": 81,
    "o": 82,
    "p": 83,
    "q": 84,
    "r": 85,
    "s": 86,
    "t": 87,
    "u": 88,
    "v": 89,
    "w": 90,
    "x": 91,
    "y": 92,
    "z": 93,
    "{": 94,
    "|": 95,
    "}": 96,
    "~": 97,
    "¡": 98,
    "¢": 99,
    "£": 100,
    "¤": 101,
    "¥": 102,
    "¦": 103,
    "§": 104,
    "¨": 105,
    "©": 106,
    "ª": 107,
    "«": 108,
    "¬": 109,
    "®": 110,
    "¯": 111,
    "°": 112,
    "±": 113,
    "²": 114,
    "³": 115,
    "´": 116,
    "µ": 117,
    "¶": 118,
    "·": 119,
    "¸": 120,
    "¹": 121,
    "º": 122,
    "»": 123,
    "¼": 124,
    "½": 125,
    "¾": 126,
    "¿": 127,
    "À": 128,
    "Á": 129,
    "Â": 130,
    "Ã": 131,
    "Ä": 132,
    "Å": 133,
    "Æ": 134,
    "Ç": 135,
    "È": 136,
    "É": 137,
    "Ê": 138,
    "Ë": 139,
    "Ì": 140,
    "Í": 141,
    "Î": 142,
    "Ï": 143,
    "Ð": 144,
    "Ñ": 145,
    "Ò": 146,
    "Ó": 147,
    "Ô": 148,
    "Õ": 149,
    "Ö": 150,
    "×": 151,
    "Ø": 152,
    "Ù": 153,
    "Ú": 154,
    "Û": 155,
    "Ü": 156,
    "Ý": 157,
    "Þ": 158,
    "ß": 159,
    "à": 160,
    "á": 161,
    "â": 162,
    "ã": 163,
    "ä": 164,
    "å": 165,
    "æ": 166,
    "ç": 167,
    "è": 168,
    "é": 169,
    "ê": 170,
    "ë": 171,
    "ì": 172,
    "í": 173,
    "î": 174,
    "ï": 175,
    "ð": 176,
    "ñ": 177,
    "ò": 178,
    "ó": 179,
    "ô": 180,
    "õ": 181,
    "ö": 182,
    "÷": 183,
    "ø": 184,
    "ù": 185,
    "ú": 186,
    "û": 187,
    "ü": 188,
    "ý": 189,
    "þ": 190,
    "ÿ": 191,
    "Ā": 192,
    "ā": 193,
    "Ă": 194,
    "ă": 195,
    "Ą": 196,
    "ą": 197,
    "Ć": 198,
    "ć": 199,
    "Ĉ": 200,
    "ĉ": 201,
    "Ċ": 202,
    "ċ": 203,
    "Č": 204,
    "č": 205,
    "Ď": 206,
    "ď": 207,
    "Đ": 208,
    "đ": 209,
    "Ē": 210,
    "ē": 211,
    "Ĕ": 212,
    "ĕ": 213,
    "Ė": 214,
    "ė": 215,
    "Ę": 216,
    "ę": 217,
    "Ě": 218,
    "ě": 219,
    "Ĝ": 220,
    "ĝ": 221,
    "Ğ": 222,
    "ğ": 223,
    "Ġ": 224,
    "ġ": 225,
    "Ģ": 226,
    "ģ": 227,
    "Ĥ": 228,
    "ĥ": 229,
    "Ħ": 230,
    "ħ": 231,
    "Ĩ": 232,
    "ĩ": 233,
    "Ī": 234,
    "ī": 235,
    "Ĭ": 236,
    "ĭ": 237,
    "Į": 238,
    "į": 239,
    "İ": 240,
    "ı": 241,
    "Ĳ": 242,
    "ĳ": 243,
    "Ĵ": 244,
    "ĵ": 245,
    "Ķ": 246,
    "ķ": 247,
    "ĸ": 248,
    "Ĺ": 249,
    "ĺ": 250,
    "Ļ": 251,
    "ļ": 252,
    "Ľ": 253,
    "ľ": 254,
    "Ŀ": 255,
    "ŀ": 256,
    "Ł": 257,
    "ł": 258,
    "Ń": 259,
    "Ð¾": 260,
    "Ðµ": 261,
    "ÑĤ": 262,
    "Ð¸": 263,
    "Ð½": 264,
    "Ð°": 265,
    "Ñģ": 266,
    "Ð²": 267,
    "ÐµÐ": 268,
    "ÑĢ": 269,
    "Ð¾Ð": 270,
    "Ñı": 271,
    "Ñĥ": 272,
    "ÑĮ": 273,
    "Ð¼": 274,
    "Ð´": 275,
    "Ð»": 276,
    "Ð¿": 277,
    "Ñĩ": 278,
    "Ðº": 279,
    "Ñĭ": 280,
    "ÑģÑĤ": 281,
    "ÑĤÑĮ": 282,
    "Ðŀ": 283,
    "Ð±": 284,
    "Ð½Ðµ": 285,
    "Ð¾Ð²": 286,
    "Ð·": 287,
    "Ð½Ð¸": 288,
    "ÐµÐ»": 289,
    "ÐµÑĤ": 290,
    "ÐµÐ¼": 291,
    "Ð½Ð°": 292,
    "³Ð¾": 293,
    "ÐŀÐ": 294,
    "Ñİ": 295,
    "ÑģÑı": 296,
    "ÑĢÐ°": 297,
    "ÑĤÐ¾": 298,
    "Ðĺ": 299,
    "Ð¶": 300,
    "ÑĪ": 301,
    "Ð¹": 302,
    "Ð¢": 303,
    "ÐĿ": 304,
    "ÐĴ": 305,
    "Ðķ": 306,
    "ÐµÑĢ": 307,
    "ÑĢÐµÐ¼": 308,
    "Ð½Ð¾": 309,
    "Ð¡": 310,
    "Ðļ": 311,
    "ÑĢÐµÐ¼Ñı": 312,
    "Ð¸ÑĤ": 313,
    "ÐĲ": 314,
    "Ð°ÑĤÑĮ": 315,
    "Ð³": 316,
    "Ð¾Ð¼": 317,
    "Ð²Ð¾": 318,
    "Ð¿Ð¾": 319,
    "Ð¾Ð»": 320,
    "Ñħ": 321,
    "ÑĩÐµÐ»": 322,
    "ÑĩÐµÐ»Ð¾Ð²": 323,
    "Ð¸Ð¼": 324,
    "Ð»Ð¸": 325,
    "Ð²ÑĢÐµÐ¼Ñı": 326,
    "Ð¾Ð´": 327,
    "Ð¾Ð±": 328,
    "Ð¾Ð³": 329,
    "ÐµÐ³Ð¾": 330,
    "Ñĳ": 331,
    "Ð½Ñĭ": 332,
    "ÐµÐº": 333,
    "ÐµÐ±": 334,
    "ÐĽ": 335,
    "Ð´Ð°": 336,
    "Ð¿ÑĢ": 337,
    "ÑģÑĤÐ²": 338,
    "ÑĩÐµÐ»Ð¾Ð²ÐµÐº": 339,
    "ÐºÐ¾": 340,
    "ÐµÐ½": 341,
    "ÐºÐ°": 342,
    "Ð¾ÑĤ": 343,
    "Ð»Ñİ": 344,
    "Ðľ": 345,
    "Ñī": 346,
    "Ðĳ": 347,
    "ÑģÑĤÐ°": 348,
    "Ð¾Ð¹": 349,
    "Ð¼Ð¸": 350,
    "Ð¸ÑĤÑĮ": 351,
    "Ð¾Ð½": 352,
    "Ð¾Ð³Ð¾": 353,
    "Ð²Ñģ": 354,
    "âĢ": 355,
    "ÑĨ": 356,
    "ÐĿÐµ": 357,
    "ÑĥÐ¶": 358,
    "ÐµÐ´": 359,
    "ÐŁ": 360,
    "Ð¯": 361,
    "Ð»Ð°": 362,
    "Ð²Ð¸": 363,
    "ÑĥÑĩ": 364,
    "Ð°ÐµÑĤ": 365,
    "Ð£": 366,
    "ÐµÐ½Ð¸": 367,
    "Ðł": 368,
    "Ð¾ÑĢ": 369,
    "Ð»ÑİÐ±": 370,
    "ÑĥÐµÑĤ": 371,
    "ÑĥÐ´": 372,
    "ÑĤÐ²Ð¾": 373,
    "ÑĩÑĤÐ¾": 374,
    "Ð¸Ð·": 375,
    "Ð®": 376,
    "Ð¢ÐŀÐ": 377,
    "ÐµÑģ": 378,
    "Ð¾Ð¶": 379,
    "ÑĢÑĭ": 380,
    "ÑĢÑĥ": 381,
    "ÑĪÐµ": 382,
    "Ð¸ÑĤÑģÑı": 383,
    "Ð°Ð»": 384,
    "ÐµÐ¹": 385,
    "ÐµÑĩ": 386,
    "Ð½Ð¾ÑģÑĤ": 387,
    "Ð³Ð¾": 388,
    "ÑģÐ»": 389,
    "Ð²Ñĭ": 390,
    "ÑĤÐ¸": 391,
    "ÑģÐµÐ±": 392,
    "ÐºÐ¾ÑĤÐ¾": 393,
    "Ð°Ð¹": 394,
    "ÐĽÐ®": 395,
    "ÐļÐŀÐ": 396,
    "ÑıÑĤÑĮ": 397,
    "Ð¾Ð»ÑĮ": 398,
    "Ð·Ð°": 399,
    "ÐĺÐ": 400,
    "Ð½ÑĭÐ¹": 401,
    "Ð±Ñĭ": 402,
    "ÐµÑģÑĤÐ²": 403,
    "Ð¼ÑĥÐ¶": 404,
    "Ð¾Ð·": 405,
    "Ð¬": 406,
    "âĢ¦": 407,
    "ÐĴÑĢÐµÐ¼Ñı": 408,
    "ÑĢÐ°Ð·": 409,
    "Ð»Ñı": 410,
    "ÑĤÐµÑĢ": 411,
    "ÐµÐ³": 412,
    "Ð´Ð¸": 413,
    "ÑĪÐ¸": 414,
    "Ð¾Ð²Ð¾ÑĢ": 415,
    "Ð²Ð¸Ð´": 416,
    "ÑģÐ¿": 417,
    "ÑĤÐ¾Ð¼": 418,
    "Ð±ÑĥÐ´": 419,
    "ÑģÐµÐ±Ñı": 420,
    "Ð¾Ð¿": 421,
    "ÑĤÐ²Ð¾ÐµÐ³Ð¾": 422,
    "ÐµÐ»ÑĮ": 423,
    "ÑİÑĤ": 424,
    "ÑĩÐµÐ»Ð¾Ð²ÐµÑĩ": 425,
    "ÐĽÐ®Ðĳ": 426,
    "ÐµÐ¼Ñĥ": 427,
    "ÑģÐ²Ð¾": 428,
    "ÑĢÐ°ÑĤÑĮ": 429,
    "ÑĥÐ±": 430,
    "ÑģÐº": 431,
    "ÐµÐ¶": 432,
    "ÑģÑĤÐ²Ð¾": 433,
    "Ð¾Ðº": 434,
    "ÑĥÐ¿": 435,
    "ÑģÐ»Ð¸": 436,
    "Ð½Ð¾ÑģÑĤÑĮ": 437,
    "ÑĳÑĤ": 438,
    "ÑģÐ»Ð¾Ð²": 439,
    "Ð¾ÑģÑĤ": 440,
    "ÑĩÑĤ": 441,
    "ÑĩÑĤÐ¾Ð±": 442,
    "ÑĩÑĤÐ¾Ð±Ñĭ": 443,
    "ÑĩÐ¸ÑĤ": 444,
    "Ð·Ð½Ð°": 445,
    "ÐºÐ¾ÑĤÐ¾ÑĢÑĭ": 446,
    "Ð¾Ð³Ð´Ð°": 447,
    "Ð¸Ð¼Ðµ": 448,
    "ÐĶ": 449,
    "Ðĵ": 450,
    "Ð«": 451,
    "Ð¸Ð½": 452,
    "Ð½Ð¾Ñģ": 453,
    "Ð¾Ð²ÑĮ": 454,
    "ÐµÑī": 455,
    "Ð´Ð°ÑĤÑĮ": 456,
    "ÑģÐ°": 457,
    "Ð²Ð°ÑĤÑĮ": 458,
    "ÑģÐ¼": 459,
    "ÑģÐ¾Ð±": 460,
    "Ð¾Ð²Ð¾ÑĢÐ¸ÑĤÑĮ": 461,
    "ÑĥÑĩÑĪÐµ": 462,
    "ÑĤÐµÐ±": 463,
    "ÑĤÐµÐ±Ðµ": 464,
    "ÑģÐµÑĢ": 465,
    "ÑĤÐ¾Ð¼Ñĥ": 466,
    "Ð·Ñĭ": 467,
    "ÑĤÐ¾Ð³Ð¾": 468,
    "Ñį": 469,
    "ÑĩÐ°": 470,
    "Ð½Ð¾Ð³Ð¾": 471,
    "Ð¾Ð´Ð°": 472,
    "Ð¢ÐĲ": 473,
    "Ð²Ð°": 474,
    "ÑģÑĤÐ²ÑĥÐµÑĤ": 475,
    "ÑĢÐ°Ð²": 476,
    "Ð´Ðµ": 477,
    "ÐµÐ½Ð¸Ñı": 478,
    "Ð½Ð¾Ð²": 479,
    "Ð¶Ð¸Ð·": 480,
    "Ð¶Ð¸Ð·Ð½Ð¸": 481,
    "Ð¸ÑĤÑĮÑģÑı": 482,
    "Ð½Ð¸Ðº": 483,
    "Ð¿Ð¾Ð¼": 484,
    "ÐºÐ°Ðº": 485,
    "ÐŀÐĴ": 486,
    "Ð¥": 487,
    "Ð¸Ð¼ÐµÑİ": 488,
    "ÐĴÐķ": 489,
    "Ð¿Ð¾Ð´": 490,
    "ÑĥÐ¼Ð¸": 491,
    "Ð²ÑĢÐ°": 492,
    "Ð¾Ð²Ð°ÑĤÑĮ": 493,
    "ÑģÑĭ": 494,
    "Ð²Ð¾Ð¹": 495,
    "ÐµÐ»Ð¸": 496,
    "ÑįÑĤÐ¾": 497,
    "Ð´ÐµÐ»": 498,
    "Ð»ÑĥÑĩÑĪÐµ": 499,
    "Ð´Ñĥ": 500,
    "Ð¿Ð¾ÑĤÐ¾Ð¼Ñĥ": 501,
    "Ð½ÐµÐ": 502,
    "Ð´Ð¸ÑĤÑģÑı": 503,
    "ÑģÑĤÐ°Ð²": 504,
    "Ð¿Ñĥ": 505,
    "ÑĪÑĮ": 506,
    "Ð»Ð¾": 507,
    "ÐļÐĲ": 508,
    "Ð¤": 509,
    "Ð¦": 510,
    "Ð²ÑģÐµÐ³": 511,
    "Ð²ÑģÐµÐ³Ð´Ð°": 512,
    "ÐŀÐ½": 513,
    "Ð°Ð½": 514,
    "Ð·ÐµÐ¼": 515,
    "Ð¸Ð¼Ð¸": 516,
    "Ð´Ð¾Ð»": 517,
    "ÐķÑģÐ»Ð¸": 518,
    "Ð±Ð»Ð¸": 519,
    "Ð±Ð»Ð¸Ð¶": 520,
    "ÑĢÑı": 521,
    "Ð½Ð°Ð´": 522,
    "ÑĤÑĢ": 523,
    "ÐµÑģÐ»Ð¸": 524,
    "Ð±ÑĥÐ´ÐµÑĤ": 525,
    "ÐµÑĤÑģÑı": 526,
    "Ð½ÑĭÐ¼": 527,
    "Ð²Ð¾Ð·": 528,
    "ÐµÑģÑĤÐ²Ð°": 529,
    "ÑĩÐµÐ»Ð¾Ð²ÐµÐºÐ°": 530,
    "Ð¡Ðķ": 531,
    "ÐĽÐ®ÐĳÐĺ": 532,
    "Ð¢Ð¬": 533,
    "ÐĿÐĺ": 534,
    "Ð°Ðº": 535,
    "Ð¿ÐµÑĢ": 536,
    "Ð½ÐµÐ³Ð¾": 537,
    "ÐŀÐ¡": 538,
    "ÑİÐ±": 539,
    "Ð»ÑİÐ±Ð¾Ð²ÑĮ": 540,
    "âĢľ": 541,
    "ÐĴÐ¡": 542,
    "ÐļÐŀÐĻ": 543,
    "Ð©": 544,
    "âĢĿ": 545,
    "ÐºÐ»": 546,
    "ÑĢÑĥÑĪ": 547,
    "ÑĢÐ¾": 548,
    "ÑıÑĤÑĮÑģÑı": 549,
    "ÐºÐ°Ð¼": 550,
    "Ð½Ð¸Ð¼": 551,
    "Ð¸ÑģÐº": 552,
    "ÑĤÐµÑĢÑıÑĤÑĮ": 553,
    "ÑģÑĪÐ¸": 554,
    "Ð³Ð¾Ð²Ð¾ÑĢÐ¸ÑĤÑĮ": 555,
    "ÑĢÐ¾Ð¼": 556,
    "Ð¾Ð³Ð°": 557,
    "Ð½ÐµÑĤ": 558,
    "Ð´ÐµÐ»Ð°": 559,
    "Ð±ÑĥÐ´ÑĮ": 560,
    "ÑĪÐµÐ½": 561,
    "ÑģÐµÑĢÐ´": 562,
    "Ð³Ð»": 563,
    "ÐºÐ¾Ð¼": 564,
    "ÑĩÐµÐ¼": 565,
    "ÑıÐ¼": 566,
    "Ð¿ÑĢÐ¾": 567,
    "Ð¸Ð¸": 568,
    "Ð¸Ð²": 569,
    "Ð¢ÐĲÐļ": 570,
    "ÑĢÐµÐ½": 571,
    "Ð¾Ð²ÐµÑĢ": 572,
    "Ð¿Ð¾ÑģÑĤ": 573,
    "Ð±Ð¾Ð»": 574,
    "Ð±Ð¾Ð»Ðµ": 575,
    "Ð±Ð¾Ð»ÐµÐµ": 576,
    "ÑģÐ¼ÐµÑĢ": 577,
    "ÑģÐ¼ÐµÑĢÑĤÐ¸": 578,
    "Ð´ÐµÐ¹": 579,
    "Ð¿ÑĢÐµÐ´": 580,
    "ÑģÑĤÑĮ": 581,
    "Ð²Ð»Ð°": 582,
    "ÑģÑĥ": 583,
    "Ð¿ÑĢÐ¸": 584,
    "Ð°ÐµÑĤÑģÑı": 585,
    "ÐµÐ½ÑĮ": 586,
    "Ð¾ÑģÑĤÐ¸": 587,
    "ÑĤÐ¾Ð»ÑĮ": 588,
    "ÑĤÐ¾Ð»ÑĮÐºÐ¾": 589,
    "ÐºÐ¾ÑĤÐ¾ÑĢÑĭÐ¹": 590,
    "Ð¼Ð¾Ð¶": 591,
    "Ð³Ð¾ÑĢ": 592,
    "Ð±ÐµÑģ": 593,
    "Ð¿Ð¾Ðº": 594,
    "Ð°Ñħ": 595,
    "Ð½Ð¾ÑģÑĤÐ¸": 596,
    "Ð¸Ð½Ð°": 597,
    "ÑĩÐµÐ»Ð¾Ð²ÐµÐºÐ¾Ð¼": 598,
    "ÑģÑĢ": 599,
    "ÑģÑĢÐµÐ´": 600,
    "ÑĥÐ¼": 601,
    "Ð¿Ð¾Ð³": 602,
    "ÐļÐ¾Ð³Ð´Ð°": 603,
    "Ð¼ÑĥÐ¶Ðµ": 604,
    "Ð¼ÑĥÐ¶ÐµÑģÑĤÐ²Ð¾": 605,
    "Ð¾Ñĩ": 606,
    "Ð²Ð¾Ð´": 607,
    "Ð¾Ð½Ð¸": 608,
    "ÐµÑĳ": 609,
    "ÑĥÐµÑĤÑģÑı": 610,
    "ÐºÐ¾ÑĤÐ¾ÑĢÑĭÐ¼": 611,
    "ÐŁÐ¾": 612,
    "Ð²ÐµÑĢ": 613,
    "ÑĥÐ¹": 614,
    "ÐĽÐ®ÐĳÐŀÐĴ": 615,
    "ÐĽÐ®ÐĳÐŀÐĴÐ¬": 616,
    "ÐŃ": 617,
    "Ð¢Ðŀ": 618,
    "Ð¡ÐķÐĳ": 619,
    "Ðĸ": 620,
    "ÐŀÐĶ": 621,
    "ÐľÐŀÐ": 622,
    "ÑģÑĤÐ¸": 623,
    "Ð²ÑģÑĳ": 624,
    "Ð¼Ð¾": 625,
    "Ð·ÐµÐ¼Ð»": 626,
    "Ð·ÐµÐ¼Ð»Ðµ": 627,
    "ÐĴÐŀÐ": 628,
    "Ð¡Ð¢ÐŀÐ": 629,
    "Ð§": 630,
    "Ðģ": 631,
    "ÐĿÐķ": 632,
    "ÐĴÐĲ": 633,
    "Ð±Ð»Ð¸Ð¶Ð½ÐµÐ³Ð¾": 634,
    "ÐľÐĺ": 635,
    "Ð»ÑİÐ±Ð²Ð¸": 636,
    "Ð¿ÐµÑĢÐµ": 637,
    "Ð¸Ð½Ñ": 638,
    "Ð¸Ð½ÑĦ": 639,
    "ÐłÐķ": 640,
    "ÐĴÐ¡Ð¯": 641,
    "ÐĴÐ¡Ð¯ÐļÐŀÐĻ": 642,
    "Ð³Ð¸": 643,
    "ÐĴÑģ": 644,
    "Ð²ÑģÑı": 645,
    "ÐºÐ¾Ð¹": 646,
    "Ð²ÐµÑī": 647,
    "Ð´Ð°ÑĤÑĮÑģÑı": 648,
    "ÑĥÐ¼Ð¸ÑĢÐ°ÑĤÑĮ": 649,
    "ÑģÐ°Ð¶": 650,
    "Ð½Ð¾Ðµ": 651,
    "ÑĢÐ°Ð·ÑĢÑĥÑĪ": 652,
    "ÑģÐµÑĤ": 653,
    "ÑģÐµÑĤÐ¾Ð²Ð°ÑĤÑĮ": 654,
    "ÑģÐ°ÑĤÑĮ": 655,
    "ÐºÐ°Ð¼Ð½Ð¸": 656,
    "Ð½Ð¸Ð¼Ð°ÑĤÑĮ": 657,
    "ÑĥÐºÐ»": 658,
    "ÑĥÐºÐ»Ð¾Ð½": 659,
    "Ð±ÐµÑĢ": 660,
    "Ð±ÐµÑĢÐµÐ³": 661,
    "Ð¾Ð±ÐµÑī": 662,
    "Ð¾Ð±ÐµÑīÐ°ÑĤÑĮ": 663,
    "Ð¸ÑģÐ¿": 664,
    "Ð½Ð¸ÑĤÑĮ": 665,
    "ÐļÑĤÐ¾": 666,
    "Ð»ÑİÐ±Ð¸ÑĤ": 667,
    "ÑģÐµÑĢÐµÐ±": 668,
    "ÑĤÐ¾ÑĤ": 669,
    "ÐºÑĤÐ¾": 670,
    "Ð¿Ð¾Ð»ÑĮ": 671,
    "Ð¿Ð¾Ð»ÑĮÐ·Ñĭ": 672,
    "ÑģÑĥÐµÑĤ": 673,
    "ÑģÑĥÐµÑĤÐ°": 674,
    "ÑĤÐµÑĢÐ¿": 675,
    "Ð³Ð½Ðµ": 676,
    "Ð³Ð½ÐµÐ²": 677,
    "Ð³Ð½ÐµÐ": 678,
    "Ð³Ð½ÐµÐ·": 679,
    "Ð³Ð½ÐµÐ·Ð´Ð¸ÑĤÑģÑı": 680,
    "ÑģÐµÑĢÐ´ÑĨ": 681,
    "Ð³Ð»ÑĥÐ¿": 682,
    "ÑģÐ»Ð¸ÑĪ": 683,
    "ÑģÐ»Ð¸ÑĪÐºÐ¾Ð¼": 684,
    "ÑģÑĤÐ°Ð²Ð»Ñı": 685,
    "Ð¼ÑĥÐ´": 686,
    "Ð³ÑĥÐ±": 687,
    "Ð´ÐµÑĤ": 688,
    "ÑĥÑģÑĤ": 689,
    "ÑĢÐ¾Ð³Ð¾": 690,
    "Ð±Ð»Ð°": 691,
    "Ð±Ð»Ð°Ð³": 692,
    "ÑĥÑģÑĤÐ°": 693,
    "ÑıÑĤ": 694,
    "Ð¶Ðµ": 695,
    "ÐŀÑĤ": 696,
    "ÑģÐºÐ°": 697,
    "ÑĤÐ²Ð¾Ð¹": 698,
    "Ð¸Ñħ": 699,
    "Ð½Ð°Ð¹": 700,
    "Ð½Ð°Ð¹Ð´": 701,
    "ÑĳÑĪÑĮ": 702,
    "Ð°Ð»ÑĮ": 703,
    "ÑĤÐµÐ»": 704,
    "Ð¶Ð¸Ð²": 705,
    "Ð¶Ð¸Ð²ÑĳÑĤ": 706,
    "ÐĹ": 707,
    "ÐĲÐĽ": 708,
    "ÐļÐŀÐĿ": 709,
    "Ð£Ñĩ": 710,
    "Ð£ÑĩÑĳ": 711,
    "Ð£ÑĩÑĳÐ½ÑĭÐ¹": 712,
    "ÐµÐ½Ð¸Ð¸": 713,
    "Ð»Ð¸Ð²Ð¾": 714,
    "Ð¶Ð¸ÑĤ": 715,
    "ÐµÐ»ÑĮÐ½Ð¾": 716,
    "ÑģÐ»Ð¾Ð²Ð°": 717,
    "Ð¸ÑģÐºÑĢÐµÐ½": 718,
    "Ð²Ð½": 719,
    "Ð²Ð½Ñĥ": 720,
    "Ð¸Ðµ": 721,
    "Ð¿Ð¾ÑģÑĤÑĥÐ¿": 722,
    "Ð¿ÑĢÐ°": 723,
    "Ð»ÑĮ": 724,
    "Ð¸Ñī": 725,
    "Ð¸ÑīÐµÑĤ": 726,
    "Ð´Ð»Ñı": 727,
    "Ð¿ÑĥÑĤÐ¸": 728,
    "ÑģÐ¾Ð²ÐµÑĢ": 729,
    "ÑģÐ¾Ð²ÐµÑĢÑĪÐµÐ½": 730,
    "ÑģÑĩÐ¸ÑĤ": 731,
    "ÑģÑĩÐ¸ÑĤÐ°ÐµÑĤ": 732,
    "ÑĨÐµÐ½": 733,
    "Ð½ÑĭÐ¼Ð¸": 734,
    "ÑıÑĪ": 735,
    "ÑıÑĪÐ¼": 736,
    "Ð¿ÑĢÐµÐ´Ð°Ð½": 737,
    "Ð¿ÑĢÐµÐ´Ð°Ð½Ð½Ð¾ÑģÑĤÑĮ": 738,
    "Ð´ÐµÐ½Ð¸Ñı": 739,
    "ÑĩÐµÐ»Ð¾Ð²ÐµÑĩÐ½Ð¾ÑģÑĤÑĮ": 740,
    "Ð´Ð¾Ð»Ð³": 741,
    "Ð´Ð°ÑĢ": 742,
    "Ð½ÐµÐ¼Ñĥ": 743,
    "ÑģÐ²Ð¾Ð¸": 744,
    "Ð½Ð¸Ñı": 745,
    "Ð¾ÑģÑĤÐ°": 746,
    "Ð¼Ð½Ð¾Ð³Ð¾": 747,
    "Ð±ÑĭÑĤÑĮ": 748,
    "ÑīÐµÑģÑĤÐ²": 749,
    "Ð»ÑİÐ´ÐµÐ¹": 750,
    "Ð½Ð°Ð´Ð¾": 751,
    "Ð°Ñı": 752,
    "ÑĥÑĩÐ¸ÑĤÑĮÑģÑı": 753,
    "ÑģÐ¿Ð¾": 754,
    "ÑģÐ¿Ð¾ÑģÐ¾Ð±": 755,
    "ÑģÐ¿Ð¾ÑģÐ¾Ð±Ð½ÑĭÐ¼": 756,
    "Ð·ÑĢ": 757,
    "Ð·ÑĢÐµÐ»": 758,
    "ÑĥÑĩÐ¸ÑĤ": 759,
    "Ð½Ð¸ÐºÑĤÐ¾": 760,
    "Ð¿Ð¾Ð¼Ð¸Ð½Ð°": 761,
    "ÐºÐ¾Ð³Ð´Ð°": 762,
    "Ð½ÑĥÐ¶": 763,
    "ÑģÐ°Ð¼": 764,
    "Ð½Ð¸Ð·": 765,
    "ÐµÐ´ÑĮ": 766,
    "ÑģÑĢÐµÐ´Ð¸": 767,
    "Ð½ÑĭÑħ": 768,
    "ÑĩÐ°ÑģÑĭ": 769,
    "ÑĤÐµÑĢÑı": 770,
    "Ð¸Ð¼ÐµÐ¹": 771,
    "Ð¿ÑĢÐ¾Ð¹": 772,
    "Ð¿ÑĢÐ¾Ð¹ÑĤÐ¸": 773,
    "ÑĭÑģÐ»": 774,
    "ÑĤÑĭ": 775,
    "ÐºÐ°ÐºÐ¾Ð¹": 776,
    "ÐĿÐ°": 777,
    "Ð±Ð¾Ð»ÑĮ": 778,
    "Ð±Ð¾Ð»ÑĮÑĪÐµ": 779,
    "Ð²Ð¸Ð´ÐµÐ»": 780,
    "Ð²Ð¾Ð´Ñĭ": 781,
    "Ð±ÑĭÐ»Ð¸": 782,
    "Ð½Ð°Ñģ": 783,
    "Ð¾Ð½Ð°": 784,
    "ÐºÐ°Ð¼Ð¸": 785,
    "Ð¿Ð¾Ð³Ð¾Ð²Ð¾ÑĢÐ¸ÑĤÑĮ": 786,
    "Ð·Ð½Ð°ÑĩÐ¸ÑĤ": 787,
    "Ð¿Ð¾ÑĤÐµÑĢÑıÑĤÑĮ": 788,
    "ÐŁÐ¾ÑĩÐ¸ÑĤ": 789,
    "ÐŁÐ¾ÑĩÐ¸ÑĤÐ°Ð¹": 790,
    "Ð³Ð»Ð°": 791,
    "Ð½ÐµÐ¿": 792,
    "ÑģÐµÐ±Ðµ": 793,
    "ÑĢÐ°Ð½Ð¸": 794,
    "ÑĤÐ²Ð¾Ð¸": 795,
    "Ð¿Ð¾Ð»": 796,
    "ÐĽÐ®ÐĶ": 797,
    "ÐĿÐĲ": 798,
    "Ð¡ÐķÐĳÐ¯": 799,
    "ÐĸÐĺÐ": 800,
    "ÐĸÐĺÐĹ": 801,
    "ÐĸÐĺÐĹÐĿÐĺ": 802,
    "Ð¸ÑģÑĤÐ¸": 803,
    "Ð´Ð¸Ð²Ð¸Ð´": 804,
    "ÐºÐ¾Ð´": 805,
    "ÐºÐ¾Ð´ÐµÐº": 806,
    "ÐºÐ¾Ð´ÐµÐºÑģ": 807,
    "ÐļÐ°Ðº": 808,
    "ÑģÐ¸Ð¼": 809,
    "ÑģÐ¸Ð¼Ð²": 810,
    "ÑģÐ¸Ð¼Ð²Ð¾Ð»": 811,
    "Ð¸Ð»Ð¸": 812,
    "ÑĩÐµÐ»Ð¾Ð²ÐµÐºÑĥ": 813,
    "ÑĤÐ°Ð»": 814,
    "Ð¼Ð¾Ð³": 815,
    "Ð¼Ð¾Ð³Ñĥ": 816,
    "Ð²Ð°ÑİÑĤ": 817,
    "Ð¾Ð·Ð½Ð°": 818,
    "ÑģÐ¾": 819,
    "ÑĢÐ°Ð´Ð°": 820,
    "ÑĢÐ°Ð´Ð°Ð½Ð¸": 821,
    "Ð²ÐµÐ½": 822,
    "Ð½Ð°Ð´ÐµÐ¶": 823,
    "ÑĢÐ°ÑĤÑĮÑģÑı": 824,
    "ÑģÑĤÐ²Ð°": 825,
    "Ð²ÑĭÑĪÐµ": 826,
    "ÐµÐ¿": 827,
    "ÑĤÐ°Ðº": 828,
    "Ð»ÑİÐ´Ð¸": 829,
    "ÐµÑħ": 830,
    "Ð½Ð¸Ñħ": 831,
    "Ð½Ð¾Ð²Ñĭ": 832,
    "Ð½Ð¾Ð²ÑĭÐ¼": 833,
    "ÐĴÐķÐł": 834,
    "ÐŀÐĵ": 835,
    "ÐĽÐĲ": 836,
    "ÐŀÐĴÐķ": 837,
    "Ð¢Ð¬Ð®": 838,
    "Ð¢ÐŀÐĽ": 839,
    "Ð¢ÐŀÐĽÐ¡Ð¢ÐŀÐ": 840,
    "Ð¢ÐŀÐĽÐ¡Ð¢ÐŀÐĻ": 841,
    "ÐģÐ¢": 842,
    "Ð¡Ðľ": 843,
    "ÐĻ": 844,
    "ÐĿÐĺÐ": 845,
    "Ð¿ÑĢÐ¾Ð¸Ð·": 846,
    "Ð¿ÑĢÐ¾Ð¸Ð·Ð½Ð¾Ñģ": 847,
    "Ð¿ÑĢÐ¾Ð¸Ð·Ð½Ð¾ÑģÐ¸": 848,
    "Ð¸Ð¼ÐµÐ½Ð¸": 849,
    "ÐĵÐ¾": 850,
    "ÐĵÐ¾ÑģÐ¿": 851,
    "Ð¿ÑĢÐµÐ»": 852,
    "Ð¿ÑĢÐµÐ»ÑİÐ±": 853,
    "Ð¿ÑĢÐµÐ»ÑİÐ±Ð¾Ð´": 854,
    "Ð¿ÑĢÐµÐ»ÑİÐ±Ð¾Ð´ÐµÐ¹": 855,
    "Ð¿ÑĢÐµÐ»ÑİÐ±Ð¾Ð´ÐµÐ¹ÑģÑĤÐ²": 856,
    "Ð¿ÑĢÐµÐ»ÑİÐ±Ð¾Ð´ÐµÐ¹ÑģÑĤÐ²ÑĥÐ¹": 857,
    "Ð¿Ð¾Ð¶": 858,
    "Ð¿Ð¾Ð¶ÐµÐ»": 859,
    "Ð¿Ð¾Ð¶ÐµÐ»Ð°Ð¹": 860,
    "ÐļÐĲÐļ": 861,
    "ÐŀÐ¢": 862,
    "Ð¢Ðķ": 863,
    "ÐŁÐŀÐ¡": 864,
    "ÐŁÐŀÐ¡Ð¢": 865,
    "ÐŁÐŀÐ¡Ð¢Ð£": 866,
    "ÐŁÐŀÐ¡Ð¢Ð£ÐŁ": 867,
    "ÐĵÐŀ": 868,
    "Ð½Ð¸Ðµ": 869,
    "Ð´Ð°Ð¼": 870,
    "Ð¼Ð¾Ñĳ": 871,
    "ÐĽÑİÐ±": 872,
    "ÐĽÑİÐ±Ð¾Ð²ÑĮ": 873,
    "Ð¿ÑĢÐµ": 874,
    "Ð¿ÑĢÐµÐ²Ð¾Ð·": 875,
    "Ð¿ÑĢÐµÐ²Ð¾Ð·Ð½Ð¾Ñģ": 876,
    "Ð¿ÑĢÐµÐ²Ð¾Ð·Ð½Ð¾ÑģÐ¸ÑĤÑģÑı": 877,
    "Ð±ÐµÑģÑĩ": 878,
    "Ð±ÐµÑģÑĩÐ¸Ð½": 879,
    "Ð±ÐµÑģÑĩÐ¸Ð½ÑģÑĤÐ²ÑĥÐµÑĤ": 880,
    "ÑĢÐ°Ð´": 881,
    "ÑĢÐ°Ð´ÑĥÐµÑĤÑģÑı": 882,
    "ÐºÐ¾ÑĢ": 883,
    "ÐºÐ¾ÑĢÐ¸Ð½ÑĦ": 884,
    "ÐºÐ¾ÑĢÐ¸Ð½ÑĦÑı": 885,
    "ÐĽÐ®ÐĳÐĺÐ¢": 886,
    "ÐĴÐłÐķ": 887,
    "ÐĴÐłÐķÐľ": 888,
    "ÐĴÐłÐķÐľÐ¯": 889,
    "ÐĴÐķÐ©": 890,
    "ÐĴÐķÐ©Ðĺ": 891,
    "ÐĺÐ·": 892,
    "ÐºÐ½Ð¸": 893,
    "ÐºÐ½Ð¸Ð³Ð¸": 894,
    "ÐķÐº": 895,
    "ÐķÐºÐºÐ»": 896,
    "ÐķÐºÐºÐ»ÐµÑģ": 897,
    "ÐķÐºÐºÐ»ÐµÑģÐ¸": 898,
    "ÐķÐºÐºÐ»ÐµÑģÐ¸Ð°": 899,
    "ÐķÐºÐºÐ»ÐµÑģÐ¸Ð°ÑģÑĤÐ°": 900,
    "ÐĴÑģÐµÐ¼Ñĥ": 901,
    "ÑģÐ²Ð¾Ðµ": 902,
    "Ð²ÑģÑıÐºÐ¾Ð¹": 903,
    "Ð²ÐµÑīÐ¸": 904,
    "Ð½ÐµÐ±": 905,
    "Ð½ÐµÐ±Ð¾Ð¼": 906,
    "ÑĢÐ¾Ð¶": 907,
    "ÑĢÐ¾Ð¶Ð´Ð°ÑĤÑĮÑģÑı": 908,
    "Ð½Ð°ÑģÐ°Ð¶": 909,
    "Ð½Ð°ÑģÐ°Ð¶Ð´Ð°ÑĤÑĮ": 910,
    "Ð²ÑĭÑĢÑĭ": 911,
    "Ð²ÑĭÑĢÑĭÐ²Ð°ÑĤÑĮ": 912,
    "Ð¿Ð¾ÑģÐ°Ð¶": 913,
    "Ð¿Ð¾ÑģÐ°Ð¶ÐµÐ½": 914,
    "Ð¿Ð¾ÑģÐ°Ð¶ÐµÐ½Ð½Ð¾Ðµ": 915,
    "ÑĥÐ±Ð¸": 916,
    "ÑĥÐ±Ð¸Ð²Ð°ÑĤÑĮ": 917,
    "Ð²ÑĢÐ°Ñĩ": 918,
    "Ð²ÑĢÐ°ÑĩÐµ": 919,
    "Ð²ÑĢÐ°ÑĩÐµÐ²Ð°ÑĤÑĮ": 920,
    "ÑĢÐ°Ð·ÑĢÑĥÑĪÐ°ÑĤÑĮ": 921,
    "ÑģÑĤÑĢÐ¾": 922,
    "ÑģÑĤÑĢÐ¾Ð¸ÑĤÑĮ": 923,
    "Ð¿Ð»Ð°": 924,
    "Ð¿Ð»Ð°Ðº": 925,
    "Ð¿Ð»Ð°ÐºÐ°ÑĤÑĮ": 926,
    "ÑģÐ¼Ðµ": 927,
    "ÑģÐ¼ÐµÑıÑĤÑĮÑģÑı": 928,
    "Ð¿Ð»Ñı": 929,
    "Ð¿Ð»ÑıÑģÐ°ÑĤÑĮ": 930,
    "ÑĢÐ°Ð·Ð±": 931,
    "ÑĢÐ°Ð·Ð±ÑĢÐ°": 932,
    "ÑĢÐ°Ð·Ð±ÑĢÐ°ÑģÑĭ": 933,
    "ÑĢÐ°Ð·Ð±ÑĢÐ°ÑģÑĭÐ²Ð°ÑĤÑĮ": 934,
    "ÑģÐ¾Ð±Ð¸": 935,
    "ÑģÐ¾Ð±Ð¸ÑĢÐ°ÑĤÑĮ": 936,
    "Ð¾Ð±Ð½Ð¸Ð¼Ð°ÑĤÑĮ": 937,
    "ÑĥÐºÐ»Ð¾Ð½ÑıÑĤÑĮÑģÑı": 938,
    "Ð¾Ð±Ñ": 939,
    "Ð¾Ð±ÑĬ": 940,
    "Ð¾Ð±ÑĬÑı": 941,
    "Ð¾Ð±ÑĬÑıÑĤÐ¸": 942,
    "Ð¾Ð±ÑĬÑıÑĤÐ¸Ð¹": 943,
    "Ð¸ÑģÐºÐ°ÑĤÑĮ": 944,
    "ÑģÐ±ÐµÑĢÐµÐ³": 945,
    "ÑģÐ±ÐµÑĢÐµÐ³Ð°ÑĤÑĮ": 946,
    "Ð±ÑĢÐ¾": 947,
    "Ð±ÑĢÐ¾ÑģÐ°ÑĤÑĮ": 948,
    "ÑĢÐ°Ð·Ð´Ð¸": 949,
    "ÑĢÐ°Ð·Ð´Ð¸ÑĢÐ°ÑĤÑĮ": 950,
    "ÑģÑĪÐ¸Ð²Ð°ÑĤÑĮ": 951,
    "Ð¼Ð¾Ð»": 952,
    "Ð¼Ð¾Ð»Ñĩ": 953,
    "Ð¼Ð¾Ð»ÑĩÐ°ÑĤÑĮ": 954,
    "Ð»ÑİÐ±Ð¸ÑĤÑĮ": 955,
    "Ð½ÐµÐ½Ð°": 956,
    "Ð½ÐµÐ½Ð°Ð²Ð¸Ð´": 957,
    "Ð½ÐµÐ½Ð°Ð²Ð¸Ð´Ðµ": 958,
    "Ð½ÐµÐ½Ð°Ð²Ð¸Ð´ÐµÑĤÑĮ": 959,
    "Ð²Ð¾Ð¹Ð½Ðµ": 960,
    "Ð¼Ð¸ÑĢÑĥ": 961,
    "ÐĽÑĥÑĩÑĪÐµ": 962,
    "Ð½ÐµÐ¶": 963,
    "Ð½ÐµÐ¶ÐµÐ»Ð¸": 964,
    "Ð¸ÑģÐ¿Ð¾Ð»": 965,
    "Ð¸ÑģÐ¿Ð¾Ð»Ð½Ð¸ÑĤÑĮ": 966,
    "ÑģÐµÑĢÐµÐ±ÑĢÐ¾": 967,
    "Ð½Ð°ÑģÑĭ": 968,
    "Ð½Ð°ÑģÑĭÑĤ": 969,
    "Ð½Ð°ÑģÑĭÑĤÐ¸ÑĤÑģÑı": 970,
    "ÑģÐµÑĢÐµÐ±ÑĢÐ¾Ð¼": 971,
    "Ð±Ð¾Ð³Ð°": 972,
    "Ð±Ð¾Ð³Ð°ÑĤ": 973,
    "Ð±Ð¾Ð³Ð°ÑĤÑģÑĤÐ²Ð¾": 974,
    "ÐļÐ¾": 975,
    "ÐļÐ¾Ð½Ðµ": 976,
    "ÐļÐ¾Ð½ÐµÑĨ": 977,
    "Ð½Ð°ÑĩÐ°": 978,
    "Ð½Ð°ÑĩÐ°Ð»Ð°": 979,
    "ÑĤÐµÑĢÐ¿ÐµÐ»Ð¸": 980,
    "ÑĤÐµÑĢÐ¿ÐµÐ»Ð¸Ð²Ñĭ": 981,
    "ÑĤÐµÑĢÐ¿ÐµÐ»Ð¸Ð²ÑĭÐ¹": 982,
    "Ð²ÑĭÑģ": 983,
    "Ð²ÑĭÑģÐ¾Ðº": 984,
    "Ð²ÑĭÑģÐ¾ÐºÐ¾Ð¼": 985,
    "Ð²ÑĭÑģÐ¾ÐºÐ¾Ð¼ÐµÑĢ": 986,
    "Ð²ÑĭÑģÐ¾ÐºÐ¾Ð¼ÐµÑĢÐ½Ð¾Ð³Ð¾": 987,
    "Ð´ÑĥÑħ": 988,
    "Ð´ÑĥÑħÐ¾Ð¼": 989,
    "ÑĤÐ²Ð¾Ð¸Ð¼": 990,
    "Ð¿Ð¾ÑģÐ¿": 991,
    "Ð¿Ð¾ÑģÐ¿Ðµ": 992,
    "Ð¿Ð¾ÑģÐ¿ÐµÑĪÐµÐ½": 993,
    "ÑģÐµÑĢÐ´ÑĨÐµ": 994,
    "Ð³Ð»ÑĥÐ¿Ñĭ": 995,
    "Ð³Ð»ÑĥÐ¿ÑĭÑħ": 996,
    "ÑģÑĤÑĢ": 997,
    "ÑģÑĤÑĢÐ¾Ð³": 998,
    "Ð²ÑĭÑģÑĤÐ°Ð²Ð»Ñı": 999,
    "Ð²ÑĭÑģÑĤÐ°Ð²Ð»ÑıÐ¹": 1000,
    "Ð¼ÑĥÐ´ÑĢÑĭ": 1001,
    "Ð¼ÑĥÐ´ÑĢÑĭÐ¼": 1002,
    "Ð·Ð°ÑĩÐµÐ¼": 1003,
    "Ð³ÑĥÐ±Ð¸ÑĤÑĮ": 1004,
    "ÐºÐ¾Ð¿": 1005,
    "ÐºÐ¾Ð¿Ð°ÐµÑĤ": 1006,
    "ÑıÐ¼Ñĥ": 1007,
    "ÑĥÐ¿Ð°": 1008,
    "ÑĥÐ¿Ð°Ð´ÐµÑĤ": 1009,
    "Ð½ÐµÐµ": 1010,
    "ÑĢÐ°Ð·ÑĢÑĥÑĪÐ°ÐµÑĤ": 1011,
    "Ð¾Ð³ÑĢÐ°": 1012,
    "Ð¾Ð³ÑĢÐ°Ð´Ñĥ": 1013,
    "ÑĥÐ¶Ð°Ð»": 1014,
    "ÑĥÐ¶Ð°Ð»Ð¸ÑĤ": 1015,
    "Ð·Ð¼": 1016,
    "Ð·Ð¼ÐµÐ¹": 1017,
    "Ð¡Ð»": 1018,
    "Ð¡Ð»Ð¾Ð²": 1019,
    "Ð¡Ð»Ð¾Ð²Ð°": 1020,
    "Ð¼ÑĥÐ´ÑĢÐ¾Ð³Ð¾": 1021,
    "Ð±Ð»Ð°Ð³Ð¾Ð´": 1022,
    "Ð±Ð»Ð°Ð³Ð¾Ð´Ð°ÑĤÑĮ": 1023,
    "ÑĥÑģÑĤÐ°Ñħ": 1024,
    "Ð³Ð»ÑĥÐ¿Ð¾Ð³Ð¾": 1025,
    "Ð³ÑĥÐ±ÑıÑĤ": 1026,
    "ÐŀÑĤÐ¿Ñĥ": 1027,
    "ÐŀÑĤÐ¿ÑĥÑģÐºÐ°": 1028,
    "ÐŀÑĤÐ¿ÑĥÑģÐºÐ°Ð¹": 1029,
    "ÑħÐ»": 1030,
    "ÑħÐ»ÐµÐ±": 1031,
    "Ð²Ð¾Ð´Ð°": 1032,
    "Ð²Ð¾Ð´Ð°Ð¼": 1033,
    "Ð¿ÑĢÐ¾ÑĪÐµ": 1034,
    "Ð¿ÑĢÐ¾ÑĪÐµÑģÑĤÐ²": 1035,
    "Ð¿ÑĢÐ¾ÑĪÐµÑģÑĤÐ²Ð¸Ð¸": 1036,
    "Ð¼Ð½": 1037,
    "Ð¼Ð½Ð¾Ð³": 1038,
    "Ð¼Ð½Ð¾Ð³Ð¸Ñħ": 1039,
    "Ð´Ð½": 1040,
    "Ð´Ð½ÐµÐ¹": 1041,
    "Ð¾Ð¿ÑıÑĤÑĮ": 1042,
    "Ð½Ð°Ð¹Ð´ÑĳÑĪÑĮ": 1043,
    "ÑĥÐ´Ð°": 1044,
    "ÑĥÐ´Ð°Ð»Ñı": 1045,
    "ÑĥÐ´Ð°Ð»ÑıÐ¹": 1046,
    "Ð¿ÐµÑĩ": 1047,
    "Ð¿ÐµÑĩÐ°Ð»ÑĮ": 1048,
    "ÑģÐµÑĢÐ´ÑĨÐ°": 1049,
    "ÑĥÐºÐ»Ð¾Ð½Ñı": 1050,
    "ÑĥÐºÐ»Ð¾Ð½ÑıÐ¹": 1051,
    "Ð·Ð»Ð¾": 1052,
    "Ð·Ð»Ð¾Ðµ": 1053,
    "ÑĤÐµÐ»Ð°": 1054,
    "Ð´ÐµÑĤÑģÑĤÐ²Ð¾": 1055,
    "ÑİÐ½Ð¾ÑģÑĤÑĮ": 1056,
    "Ð¶Ð°Ð»": 1057,
    "Ð¶Ð°Ð»Ð¾Ð²Ð°ÑĤÑĮ": 1058,
    "Ð¶Ð°Ð»Ð¾Ð²Ð°ÑĤÑĮÑģÑı": 1059,
    "Ð¡ÐļÐĲ": 1060,
    "Ð¡ÐļÐĲÐĹ": 1061,
    "Ð¡ÐļÐĲÐĹÐĲÐĽ": 1062,
    "ÐļÐŀÐĿÐ¤": 1063,
    "ÐļÐŀÐĿÐ¤Ð£": 1064,
    "ÐļÐŀÐĿÐ¤Ð£Ð¦": 1065,
    "ÐļÐŀÐĿÐ¤Ð£Ð¦ÐĺÐ": 1066,
    "ÐļÐŀÐĿÐ¤Ð£Ð¦ÐĺÐĻ": 1067,
    "Ð¼Ñı": 1068,
    "Ð¼ÑıÐ³": 1069,
    "Ð¼ÑıÐ³Ð¾Ðº": 1070,
    "Ð¾Ð±ÑĢÐ°": 1071,
    "Ð¾Ð±ÑĢÐ°Ñī": 1072,
    "Ð¾Ð±ÑĢÐ°ÑīÐµÐ½Ð¸Ð¸": 1073,
    "Ð²ÐµÐ¶": 1074,
    "Ð²ÐµÐ¶Ð»Ð¸Ð²Ð¾": 1075,
    "Ð²ÑģÑĤÐ°": 1076,
    "Ð²ÑģÑĤÐ°ÐµÑĤ": 1077,
    "ÑĥÐ²Ð°": 1078,
    "ÑĥÐ²Ð°Ð¶Ð¸ÑĤ": 1079,
    "ÑĥÐ²Ð°Ð¶Ð¸ÑĤÐµÐ»ÑĮÐ½Ð¾": 1080,
    "ÑģÐ°Ð´Ð¸ÑĤÑģÑı": 1081,
    "ÐķÐ³Ð¾": 1082,
    "Ð¸ÑģÐºÑĢÐµÐ½Ð½Ð¸": 1083,
    "Ð²Ð½ÑĥÑĪ": 1084,
    "Ð²Ð½ÑĥÑĪÐ°": 1085,
    "Ð²Ð½ÑĥÑĪÐ°ÑİÑĤ": 1086,
    "Ð´Ð¾Ð²ÐµÑĢ": 1087,
    "Ð´Ð¾Ð²ÐµÑĢÐ¸Ðµ": 1088,
    "Ð¿Ð¾ÑģÑĤÑĥÐ¿Ðº": 1089,
    "Ð¿Ð¾ÑģÑĤÑĥÐ¿ÐºÐ¸": 1090,
    "Ð¿ÑĢÐ°Ð²Ð¸": 1091,
    "Ð¿ÑĢÐ°Ð²Ð¸Ð»ÑĮ": 1092,
    "Ð¿ÑĢÐ°Ð²Ð¸Ð»ÑĮÐ½Ñĭ": 1093,
    "Ð´Ð¾ÑĢ": 1094,
    "Ð´Ð¾ÑĢÐ¾Ð³": 1095,
    "Ð´Ð¾ÑĢÐ¾Ð³Ðµ": 1096,
    "ÑĥÐ´Ð¾Ð±": 1097,
    "ÑĥÐ´Ð¾Ð±Ð½Ð¾Ð³Ð¾": 1098,
    "ÑĤÐ¾ÑĢ": 1099,
    "ÑĤÐ¾ÑĢÐ¾Ð¿": 1100,
    "ÑĤÐ¾ÑĢÐ¾Ð¿Ð¸ÑĤÑģÑı": 1101,
    "Ð¾Ð¶Ð¸": 1102,
    "Ð¾Ð¶Ð¸Ð´Ð°": 1103,
    "Ð¾Ð¶Ð¸Ð´Ð°Ñı": 1104,
    "Ð´Ð¾ÑģÑĤ": 1105,
    "Ð´Ð¾ÑģÑĤÐ¾Ð¹": 1106,
    "Ð´Ð¾ÑģÑĤÐ¾Ð¹Ð½": 1107,
    "Ð´Ð¾ÑģÑĤÐ¾Ð¹Ð½Ð¾Ð¹": 1108,
    "ÑģÐ¾Ð²ÐµÑĢÑĪÐµÐ½ÑģÑĤÐ²ÑĥÐµÑĤ": 1109,
    "Ð´ÐµÐ¹ÑģÑĤÐ²": 1110,
    "Ð´ÐµÐ¹ÑģÑĤÐ²Ð¾Ð²Ð°ÑĤÑĮ": 1111,
    "ÑĨÐµÐ½Ð½ÑĭÐ¼Ð¸": 1112,
    "Ð·Ð¾Ð»": 1113,
    "Ð·Ð¾Ð»Ð¾": 1114,
    "Ð·Ð¾Ð»Ð¾ÑĤÐ¾": 1115,
    "ÑıÑĪÐ¼Ñĥ": 1116,
    "ÑĨÐµÐ½Ð¸": 1117,
    "ÑĨÐµÐ½Ð¸ÑĤ": 1118,
    "Ð¿ÑĢÐ°Ð²": 1119,
    "Ð¿ÑĢÐ°Ð²Ð´Ð¸": 1120,
    "Ð¿ÑĢÐ°Ð²Ð´Ð¸Ð²Ð¾": 1121,
    "Ð¿ÑĢÐ°Ð²Ð´Ð¸Ð²Ð¾ÑģÑĤÑĮ": 1122,
    "ÑģÑĤÑĢÐµÐ¼": 1123,
    "ÑģÑĤÑĢÐµÐ¼Ð¸ÑĤÑģÑı": 1124,
    "Ð·Ð°Ð²Ð»Ð°": 1125,
    "Ð·Ð°Ð²Ð»Ð°Ð´Ðµ": 1126,
    "Ð·Ð°Ð²Ð»Ð°Ð´ÐµÑĤÑĮ": 1127,
    "Ð·ÐµÐ¼Ð»Ñı": 1128,
    "Ð·ÐµÐ¼Ð»ÑıÐ¼Ð¸": 1129,
    "ÑģÐ²Ð¾Ð¸Ð¼Ð¸": 1130,
    "Ð²Ð»Ð°Ð´ÐµÐ½Ð¸Ñı": 1131,
    "Ð²Ð»Ð°Ð´ÐµÐ½Ð¸ÑıÐ¼Ð¸": 1132,
    "Ð´ÑĥÐ¼": 1133,
    "Ð´ÑĥÐ¼Ð°ÐµÑĤ": 1134,
    "Ð¿ÑĢÐµÐ¶": 1135,
    "Ð¿ÑĢÐµÐ¶Ð´Ðµ": 1136,
    "ÑĢÐ°Ð±": 1137,
    "ÑĢÐ°Ð±Ð¾ÑĤ": 1138,
    "ÑĢÐ°Ð±Ð¾ÑĤÐµ": 1139,
    "Ð¿Ð¾ÑĤÐ¾Ð¼": 1140,
    "Ð½Ð°Ð³": 1141,
    "Ð½Ð°Ð³ÑĢÐ°": 1142,
    "Ð½Ð°Ð³ÑĢÐ°Ð´Ðµ": 1143,
    "Ð³Ð¾ÑģÑĥ": 1144,
    "Ð³Ð¾ÑģÑĥÐ´Ð°ÑĢ": 1145,
    "Ð³Ð¾ÑģÑĥÐ´Ð°ÑĢÑĮ": 1146,
    "Ð¿Ð¾ÑģÑĤÑĥÐ¿Ð°ÐµÑĤ": 1147,
    "Ð½ÐµÑģÐ¿": 1148,
    "Ð½ÐµÑģÐ¿ÑĢÐ°Ð²": 1149,
    "Ð½ÐµÑģÐ¿ÑĢÐ°Ð²ÐµÐ´": 1150,
    "Ð½ÐµÑģÐ¿ÑĢÐ°Ð²ÐµÐ´Ð»Ð¸Ð²Ð¾": 1151,
    "Ð¿ÑĢÐ¸Ð±Ð»Ð¸Ð¶": 1152,
    "Ð¿ÑĢÐ¸Ð±Ð»Ð¸Ð¶Ð°ÐµÑĤÑģÑı": 1153,
    "ÐłÐ°": 1154,
    "ÐłÐ°ÑģÑĪÐ¸": 1155,
    "ÐłÐ°ÑģÑĪÐ¸ÑĢÑı": 1156,
    "ÐłÐ°ÑģÑĪÐ¸ÑĢÑıÑı": 1157,
    "Ð·Ð½Ð°Ð½Ð¸Ñı": 1158,
    "Ð¾ÑģÑĤÐ°Ð½Ð°": 1159,
    "Ð¾ÑģÑĤÐ°Ð½Ð°Ð²": 1160,
    "Ð¾ÑģÑĤÐ°Ð½Ð°Ð²Ð»Ð¸": 1161,
    "Ð¾ÑģÑĤÐ°Ð½Ð°Ð²Ð»Ð¸Ð²": 1162,
    "Ð¾ÑģÑĤÐ°Ð½Ð°Ð²Ð»Ð¸Ð²Ð°ÐµÑĤÑģÑı": 1163,
    "Ð¼Ð³": 1164,
    "Ð¼Ð³Ð½Ð¾Ð²": 1165,
    "Ð¼Ð³Ð½Ð¾Ð²ÐµÐ½ÑĮ": 1166,
    "Ð¼Ð³Ð½Ð¾Ð²ÐµÐ½ÑĮÐµ": 1167,
    "Ð·Ð½Ð°ÐµÑĤ": 1168,
    "ÑĥÑģÑĤÐ°Ð»": 1169,
    "ÑĥÑģÑĤÐ°Ð»Ð¾ÑģÑĤÐ¸": 1170,
    "ÑģÐ»Ñĭ": 1171,
    "ÑģÐ»ÑĭÑĪ": 1172,
    "ÑģÐ»ÑĭÑĪÐ°Ð»": 1173,
    "ÑĥÑĩÐ¸": 1174,
    "ÑĥÑĩÐ¸Ð»": 1175,
    "ÑĥÑĩÐ¸Ð»ÑģÑı": 1176,
    "Ð¼Ð¾Ð¶ÐµÑĤ": 1177,
    "ÑĨÐµÐ»": 1178,
    "ÑĨÐµÐ»Ñĭ": 1179,
    "ÑĨÐµÐ»ÑĭÐ¹": 1180,
    "Ð´ÐµÐ½ÑĮ": 1181,
    "Ð¾Ð±ÑīÐµÑģÑĤÐ²": 1182,
    "Ð¾Ð±ÑīÐµÑģÑĤÐ²Ðµ": 1183,
    "Ð½Ð°Ð´Ð¾ÐµÐ´": 1184,
    "Ð½Ð°Ð´Ð¾ÐµÐ´Ð°Ñı": 1185,
    "ÐĳÐ»Ð°": 1186,
    "ÐĳÐ»Ð°Ð³Ð¾ÑĢ": 1187,
    "ÐĳÐ»Ð°Ð³Ð¾ÑĢÐ¾Ð´": 1188,
    "ÐĳÐ»Ð°Ð³Ð¾ÑĢÐ¾Ð´Ð½ÑĭÐ¹": 1189,
    "ÑģÐ²Ð¾ÐµÐ¹": 1190,
    "Ð´Ð¾Ð»Ð¶": 1191,
    "Ð´Ð¾Ð»Ð¶ÐµÐ½": 1192,
    "Ð±ÐµÑģÐ¿Ð¾Ðº": 1193,
    "Ð±ÐµÑģÐ¿Ð¾ÐºÐ¾": 1194,
    "Ð±ÐµÑģÐ¿Ð¾ÐºÐ¾Ð¸ÑĤÑĮÑģÑı": 1195,
    "ÑĤÑĢÑĳ": 1196,
    "ÑĤÑĢÑĳÑħ": 1197,
    "Ð²ÐµÑīÐ°Ñħ": 1198,
    "ÑİÐ½Ð¾ÑģÑĤÐ¸": 1199,
    "Ð¾ÐºÐ°": 1200,
    "Ð¾ÐºÐ°Ð¶": 1201,
    "Ð¾ÐºÐ°Ð¶ÐµÑĤÑģÑı": 1202,
    "ÑĩÐµÐ¼Ñĥ": 1203,
    "Ð·ÑĢÐµÐ»Ð¾Ð¼": 1204,
    "Ð²Ð¾Ð·ÑĢÐ°": 1205,
    "Ð²Ð¾Ð·ÑĢÐ°ÑģÑĤ": 1206,
    "Ð²Ð¾Ð·ÑĢÐ°ÑģÑĤÐµ": 1207,
    "Ð½Ð¸ÐºÐ¾Ð³Ð¾": 1208,
    "Ð·ÑĢÐµÐ»Ð¾ÑģÑĤÐ¸": 1209,
    "Ð²ÑģÐ¿Ð¾Ð¼Ð¸Ð½Ð°": 1210,
    "Ð²ÑģÐ¿Ð¾Ð¼Ð¸Ð½Ð°ÑĤÑĮ": 1211,
    "Ð½Ñĳ": 1212,
    "Ð½ÑĳÐ¼": 1213,
    "Ð¿Ð¾ÑģÐ»": 1214,
    "Ð¿Ð¾ÑģÐ»Ðµ": 1215,
    "Ð¿Ð¾Ð¼Ð¾Ð³": 1216,
    "Ð¿Ð¾Ð¼Ð¾Ð³Ð°ÑĤÑĮ": 1217,
    "Ð´ÑĢÑĥ": 1218,
    "Ð´ÑĢÑĥÐ³": 1219,
    "Ð´ÑĢÑĥÐ³Ð¸Ð¼": 1220,
    "Ð¿ÑĢÐ¸Ð´": 1221,
    "Ð¿ÑĢÐ¸Ð´ÑĳÑĤ": 1222,
    "Ð¿Ð¾Ð¼Ð¾": 1223,
    "Ð¿Ð¾Ð¼Ð¾Ñī": 1224,
    "Ð¿Ð¾Ð¼Ð¾ÑīÑĮ": 1225,
    "Ð½ÑĥÐ¶Ð´Ð°ÑĤÑĮÑģÑı": 1226,
    "Ð²ÑĢÐ°Ð¶": 1227,
    "Ð²ÑĢÐ°Ð¶Ð´Ñĥ": 1228,
    "Ð²ÑĢÐ°Ð¶Ð´ÑĥÐ¹": 1229,
    "Ð½Ð¸Ð·Ðº": 1230,
    "Ð½Ð¸Ð·ÐºÐ¸Ð¼": 1231,
    "Ð²ÐµÐ´ÑĮ": 1232,
    "Ð¸Ð¼ÐµÐµÑĤ": 1233,
    "Ð²ÑĢÐ°Ð³": 1234,
    "Ð²ÑĢÐ°Ð³Ð¾Ð²": 1235,
    "Ð¿Ð¾Ð´Ð¾Ð±": 1236,
    "Ð¿Ð¾Ð´Ð¾Ð±Ð½ÑĭÑħ": 1237,
    "Ð±ÐµÐ": 1238,
    "Ð±ÐµÐ·": 1239,
    "Ð±ÐµÐ·Ð´": 1240,
    "Ð±ÐµÐ·Ð´ÐµÐ»ÑĮ": 1241,
    "Ð±ÐµÐ·Ð´ÐµÐ»ÑĮÑı": 1242,
    "ÑĤÑĥÐ¿": 1243,
    "ÑĤÑĥÐ¿Ðµ": 1244,
    "ÑĤÑĥÐ¿ÐµÐµÑĤ": 1245,
    "Ð¿Ð¾Ð³Ð»Ð¾": 1246,
    "Ð¿Ð¾Ð³Ð»Ð¾Ñī": 1247,
    "Ð¿Ð¾Ð³Ð»Ð¾ÑīÐµÐ½Ð¸Ñı": 1248,
    "Ð´ÐµÐ»Ð°Ð¼Ð¸": 1249,
    "ÑĤÐµÑĢÑıÐµÑĤÑģÑı": 1250,
    "Ð¿Ð¾Ð´Ð½Ð¸Ð¼": 1251,
    "Ð¿Ð¾Ð´Ð½Ð¸Ð¼Ð°": 1252,
    "Ð¿Ð¾Ð´Ð½Ð¸Ð¼Ð°Ðµ": 1253,
    "Ð¿Ð¾Ð´Ð½Ð¸Ð¼Ð°ÐµÑĪÑĮ": 1254,
    "Ð¿Ð¾Ð´Ð½Ð¸Ð¼Ð°ÐµÑĪÑĮÑģÑı": 1255,
    "Ð³Ð¾ÑĢÑĥ": 1256,
    "ÑĥÐ·": 1257,
    "ÑĥÐ·ÐºÐ¾Ð¹": 1258,
    "ÑĤÑĢÐ¾Ð¿": 1259,
    "ÑĤÑĢÐ¾Ð¿Ðµ": 1260,
    "Ð¸Ð´": 1261,
    "Ð¸Ð´ÑĳÑĪÑĮ": 1262,
    "ÑģÐ½": 1263,
    "ÑģÐ½ÐµÐ³": 1264,
    "ÑģÐ½ÐµÐ³Ñĥ": 1265,
    "ÑģÐºÐ¾Ð»ÑĮ": 1266,
    "ÑģÐºÐ¾Ð»ÑĮÐ·": 1267,
    "ÑģÐºÐ¾Ð»ÑĮÐ·ÐºÐ¾Ð¼": 1268,
    "ÑģÐºÐ¾Ð»ÑĮÐ·ÐºÐ¾Ð¼Ñĥ": 1269,
    "Ð¼Ð¾ÑģÑĤ": 1270,
    "Ð¼Ð¾ÑģÑĤÑĥ": 1271,
    "ÑģÐ»Ð¾Ð²Ðµ": 1272,
    "Ð³Ð»ÑĥÐ±": 1273,
    "Ð³Ð»ÑĥÐ±Ð¾Ñĩ": 1274,
    "Ð³Ð»ÑĥÐ±Ð¾ÑĩÐ°Ð¹": 1275,
    "Ð³Ð»ÑĥÐ±Ð¾ÑĩÐ°Ð¹ÑĪÐ¸": 1276,
    "Ð³Ð»ÑĥÐ±Ð¾ÑĩÐ°Ð¹ÑĪÐ¸Ð¹": 1277,
    "ÑģÐ¼ÑĭÑģÐ»": 1278,
    "Ð¾Ð¿Ð°": 1279,
    "Ð¾Ð¿Ð°Ñģ": 1280,
    "Ð¾Ð¿Ð°ÑģÐ½ÑĭÑħ": 1281,
    "Ð¿Ð¾Ð²Ð¾ÑĢ": 1282,
    "Ð¿Ð¾Ð²Ð¾ÑĢÐ¾ÑĤ": 1283,
    "Ð¿Ð¾Ð²Ð¾ÑĢÐ¾ÑĤÐ°Ñħ": 1284,
    "ÑħÐ²Ð°": 1285,
    "ÑħÐ²Ð°ÑĤ": 1286,
    "ÑħÐ²Ð°ÑĤÐ°ÐµÑĤ": 1287,
    "Ð¼ÑĥÐ¶ÐµÑģÑĤÐ²Ð°": 1288,
    "Ð¾Ð±Ñı": 1289,
    "Ð¾Ð±ÑıÐ·Ð°": 1290,
    "Ð¾Ð±ÑıÐ·Ð°ÑĤ": 1291,
    "Ð¾Ð±ÑıÐ·Ð°ÑĤÐµÐ»ÑĮÐ½Ð¾": 1292,
    "Ð·Ð°ÑģÑĤ": 1293,
    "Ð·Ð°ÑģÑĤÑĢÑı": 1294,
    "Ð·Ð°ÑģÑĤÑĢÑıÐ½Ðµ": 1295,
    "Ð·Ð°ÑģÑĤÑĢÑıÐ½ÐµÑĪÑĮ": 1296,
    "Ð½Ð¸Ð±ÑĥÐ´ÑĮ": 1297,
    "ÑıÐ¼Ðµ": 1298,
    "ÐĿÐ°ÑĢ": 1299,
    "ÐĿÐ°ÑĢÐ¾Ð´": 1300,
    "Ð½ÑĥÐ¶Ð´Ð°": 1301,
    "Ð½ÑĥÐ¶Ð´Ð°ÐµÑĤÑģÑı": 1302,
    "ÑĩÐµÐ»Ð¾Ð²ÐµÑĩÐ½Ð¾ÑģÑĤÐ¸": 1303,
    "Ð¾Ð³Ð½Ðµ": 1304,
    "Ð²Ð¾Ð´Ðµ": 1305,
    "ÑĥÐ¼Ð¸ÑĢÐ°": 1306,
    "ÑĥÐ¼Ð¸ÑĢÐ°Ñİ": 1307,
    "ÑĥÐ¼Ð¸ÑĢÐ°ÑİÑī": 1308,
    "ÑĥÐ¼Ð¸ÑĢÐ°ÑİÑīÐ¸Ñħ": 1309,
    "Ð¾Ð³Ð½": 1310,
    "Ð¾Ð³Ð½Ñı": 1311,
    "ÑĥÐ¼Ð¸ÑĢÐ°Ð²": 1312,
    "ÑĥÐ¼Ð¸ÑĢÐ°Ð²ÑĪÐ¸": 1313,
    "ÑĥÐ¼Ð¸ÑĢÐ°Ð²ÑĪÐ¸Ñħ": 1314,
    "ÑĩÐµÐ»Ð¾Ð²ÐµÑĩÐ½Ñĭ": 1315,
    "ÐĶÐ°Ð»": 1316,
    "ÐĶÐ°Ð»ÐµÐº": 1317,
    "ÐĶÐ°Ð»ÐµÐºÐ¾": 1318,
    "Ð¼Ñĭ": 1319,
    "ÑħÐ¾ÑĤ": 1320,
    "ÑħÐ¾ÑĤÐ¸Ð¼": 1321,
    "ÑĢÑĥÐºÐ°Ð¼Ð¸": 1322,
    "ÑĤÑĢÐµÐ±": 1323,
    "ÑĤÑĢÐµÐ±ÑĥÐµÑĤÑģÑı": 1324,
    "Ð¿Ð¾Ð½": 1325,
    "Ð¿Ð¾Ð½ÑıÑĤ": 1326,
    "Ð¿Ð¾Ð½ÑıÑĤÐ½Ñĭ": 1327,
    "Ð¼Ð¾Ð¶Ð½Ð¾": 1328,
    "Ð½ÐµÐ»ÑĮ": 1329,
    "Ð½ÐµÐ»ÑĮÐ·": 1330,
    "Ð½ÐµÐ»ÑĮÐ·Ñı": 1331,
    "Ð£Ð¼": 1332,
    "Ð£Ð¼Ð½ÑĭÐ¹": 1333,
    "ÑĤÐµÑĢÑıÐµÑĤ": 1334,
    "Ð³Ð»Ð°Ð²": 1335,
    "Ð³Ð»Ð°Ð²Ð½Ð¾Ðµ": 1336,
    "Ð¸ÑģÐºÑĢÐµÐ½Ð½Ð¾ÑģÑĤÑĮ": 1337,
    "Ð´ÑĢ": 1338,
    "Ð´ÑĢÑĥÐ¶": 1339,
    "Ð´ÑĢÑĥÐ¶Ð¸": 1340,
    "Ð½ÐµÐ¿Ð¾Ð´": 1341,
    "Ð½ÐµÐ¿Ð¾Ð´Ð¾Ð±": 1342,
    "Ð½ÐµÐ¿Ð¾Ð´Ð¾Ð±Ð½ÑĭÐ¼Ð¸": 1343,
    "Ð¾ÑĪÐ¸": 1344,
    "Ð¾ÑĪÐ¸Ð±": 1345,
    "Ð¾ÑĪÐ¸Ð±ÑģÑı": 1346,
    "Ð±Ð¾Ð¹": 1347,
    "Ð±Ð¾Ð¹ÑģÑı": 1348,
    "Ð¸ÑģÐ¿ÑĢÐ°Ð²": 1349,
    "Ð¸ÑģÐ¿ÑĢÐ°Ð²Ð¸ÑĤÑĮÑģÑı": 1350,
    "ÐĺÑģÐº": 1351,
    "ÐĺÑģÐºÑĢÐµÐ½": 1352,
    "ÐĺÑģÐºÑĢÐµÐ½Ð½Ð¾": 1353,
    "Ð²ÐµÑĢÑĥÐ¹": 1354,
    "Ð»ÑİÐ±Ð¸": 1355,
    "ÑħÑĢÐ°Ð½Ð¸": 1356,
    "Ð´Ð¾": 1357,
    "ÑĥÐ±ÐµÐ¶": 1358,
    "ÑĥÐ±ÐµÐ¶Ð´ÐµÐ½Ð¸Ñı": 1359,
    "ÑģÐ´ÐµÐ»": 1360,
    "ÑģÐ´ÐµÐ»Ð°Ð¹": 1361,
    "ÑģÐ¾Ð²ÐµÑĢÑĪÐµÐ½Ð½ÑĭÐ¼": 1362,
    "ÑģÐ²Ð¾Ð¹": 1363,
    "Ð¿ÑĥÑĤÑĮ": 1364,
    "ÑıÑĪÐ¼Ð°": 1365,
    "Ð¿Ð¾Ð»ÑĥÐ´": 1366,
    "Ð¿Ð¾Ð»ÑĥÐ´ÑĢÐ°": 1367,
    "Ð¿Ð¾Ð»ÑĥÐ´ÑĢÐ°Ð³Ð¾": 1368,
    "Ð¿Ð¾Ð»ÑĥÐ´ÑĢÐ°Ð³Ð¾ÑĨÐµÐ½": 1369,
    "Ð¿Ð¾Ð»ÑĥÐ´ÑĢÐ°Ð³Ð¾ÑĨÐµÐ½Ð½ÑĭÐ¹": 1370,
    "ÐºÐ°Ð¼ÐµÐ½ÑĮ": 1371,
    "ÐºÐ¾ÑĤÐ¾ÑĢÐ¾Ð³Ð¾": 1372,
    "Ð´ÐµÐ»Ð°ÑİÑĤ": 1373,
    "Ð²Ð°Ð·Ñĭ": 1374,
    "ÑĩÐ°ÑĪÐ¸": 1375,
    "Ð¼ÑĥÐ¶Ñĩ": 1376,
    "Ð¼ÑĥÐ¶ÑĩÐ¸Ð½Ð°": 1377,
    "Ð·Ð´": 1378,
    "Ð·Ð´ÐµÑģ": 1379,
    "Ð·Ð´ÐµÑģÑĮ": 1380,
    "ÐĽÐ®ÐĶÐ¯": 1381,
    "ÐĽÐ®ÐĶÐ¯Ðľ": 1382,
    "ÐŃÐ¢Ðŀ": 1383,
    "Ð¡ÐķÐĳÐķ": 1384,
    "ÐĿÐ£": 1385,
    "ÐĿÐ£Ðĸ": 1386,
    "ÐĿÐ£ÐĸÐĿ": 1387,
    "ÐĿÐ£ÐĸÐĿÐŀ": 1388,
    "ÐŀÐĶÐĺ": 1389,
    "ÐŀÐĶÐĺÐĿÐĲ": 1390,
    "ÐŀÐĶÐĺÐĿÐĲÐļÐŀÐ": 1391,
    "ÐŀÐĶÐĺÐĿÐĲÐļÐŀÐĴ": 1392,
    "ÐŀÐĶÐĺÐĿÐĲÐļÐŀÐĴÐŀ": 1393,
    "ÐĽÐ®ÐĳÐĺÐ¢Ð¬": 1394,
    "ÐĶÐł": 1395,
    "ÐĶÐłÐ£": 1396,
    "ÐĶÐłÐ£Ðĵ": 1397,
    "ÐĶÐłÐ£ÐĵÐĺÐ": 1398,
    "ÐĶÐłÐ£ÐĵÐĺÐ¥": 1399,
    "ÐľÐŀ": 1400,
    "Ð¦ÐĹ": 1401,
    "Ð¦ÐĹÐ«": 1402,
    "ÐľÐŀÐ¯": 1403,
    "ÐļÐŀÐĿÐ¦": 1404,
    "ÐļÐŀÐĿÐ¦Ðķ": 1405,
    "ÐļÐŀÐĿÐ¦ÐķÐŁ": 1406,
    "ÐļÐŀÐĿÐ¦ÐķÐŁÐ¦": 1407,
    "ÐļÐŀÐĿÐ¦ÐķÐŁÐ¦Ðĺ": 1408,
    "ÐļÐŀÐĿÐ¦ÐķÐŁÐ¦ÐĺÐ¯": 1409,
    "Ð¤Ð¾Ð»": 1410,
    "Ð¤Ð¾Ð»Ðº": 1411,
    "Ð¤Ð¾Ð»ÐºÐ½Ðµ": 1412,
    "Ð¤Ð¾Ð»ÐºÐ½ÐµÑĢÑĥ": 1413,
    "Ð¥ÑĢ": 1414,
    "Ð¥ÑĢÐ¸ÑģÑĤÐ¸": 1415,
    "Ð¥ÑĢÐ¸ÑģÑĤÐ¸Ð°Ð½": 1416,
    "Ð¥ÑĢÐ¸ÑģÑĤÐ¸Ð°Ð½ÑģÑĤÐ²Ð¾": 1417,
    "ÐµÑģÑĤÑĮ": 1418,
    "ÐºÐ°Ð¶": 1419,
    "ÐºÐ°Ð¶Ð´": 1420,
    "ÐºÐ°Ð¶Ð´Ð¾Ð¼": 1421,
    "Ð·Ð°Ð²Ð¸": 1422,
    "Ð·Ð°Ð²Ð¸Ñģ": 1423,
    "Ð·Ð°Ð²Ð¸ÑģÐ¸ÑĤ": 1424,
    "ÐºÐ¾Ð½Ðµ": 1425,
    "ÐºÐ¾Ð½ÐµÑĩ": 1426,
    "ÐºÐ¾Ð½ÐµÑĩÐ½Ð¾": 1427,
    "Ð¿Ð¾Ð½Ð¸Ð¼Ð°ÑĤÑĮ": 1428,
    "ÑģÐ»Ð¾Ð²Ð¾": 1429,
    "ÐŃÑĤÐ¾": 1430,
    "Ð¸Ð½Ð´Ð¸Ð²Ð¸Ð´": 1431,
    "Ð¸Ð½Ð´Ð¸Ð²Ð¸Ð´Ñĥ": 1432,
    "Ð¸Ð½Ð´Ð¸Ð²Ð¸Ð´ÑĥÐ°Ð»ÑĮ": 1433,
    "Ð¸Ð½Ð´Ð¸Ð²Ð¸Ð´ÑĥÐ°Ð»ÑĮÐ½ÑĭÐ¹": 1434,
    "Ð¿Ð¾Ð²": 1435,
    "Ð¿Ð¾Ð²ÐµÐ´": 1436,
    "Ð¿Ð¾Ð²ÐµÐ´ÐµÐ½Ð¸Ñı": 1437,
    "Ð±Ð»Ð°Ð³Ð¾Ð´Ð°": 1438,
    "Ð±Ð»Ð°Ð³Ð¾Ð´Ð°ÑĢÑı": 1439,
    "ÐºÐ¾ÑĤÐ¾ÑĢÐ¾Ð¼": 1440,
    "ÐºÐ¾ÑĤÐ¾ÑĢÐ¾Ð¼Ñĥ": 1441,
    "ÑģÑĤÐ°Ð½Ð¾Ð²": 1442,
    "ÑģÑĤÐ°Ð½Ð¾Ð²Ð¸ÑĤÑģÑı": 1443,
    "ÑħÐ¾Ñĩ": 1444,
    "ÑħÐ¾ÑĩÐµÑĤ": 1445,
    "Ð¿ÑĢÐ¸ÑĢ": 1446,
    "Ð¿ÑĢÐ¸ÑĢÐ¾Ð´Ð°": 1447,
    "ÐļÐ°ÐºÐ¾Ð²": 1448,
    "Ð±ÑĭÐ»": 1449,
    "ÐºÑĢ": 1450,
    "ÐºÑĢÐµ": 1451,
    "ÐºÑĢÐµÑģÑĤ": 1452,
    "Ð¿Ð¾Ð»ÑĥÐ¼": 1453,
    "Ð¿Ð¾Ð»ÑĥÐ¼Ðµ": 1454,
    "Ð¿Ð¾Ð»ÑĥÐ¼ÐµÑģÑı": 1455,
    "Ð¿Ð¾Ð»ÑĥÐ¼ÐµÑģÑıÑĨ": 1456,
    "ÐµÑīÑĳ": 1457,
    "ÑįÑĤÐ¾ÑĤ": 1458,
    "Ð½Ð°Ð¿Ð¾Ð¼Ð¸Ð½Ð°": 1459,
    "Ð½Ð°Ð¿Ð¾Ð¼Ð¸Ð½Ð°ÐµÑĤ": 1460,
    "Ð´Ð¾Ð»Ð³Ðµ": 1461,
    "Ð¿ÐµÑĢÐµÐ´": 1462,
    "ÑĩÐµÐ»Ð¾Ð²ÐµÑĩÐµÑģÑĤÐ²": 1463,
    "ÑĩÐµÐ»Ð¾Ð²ÐµÑĩÐµÑģÑĤÐ²Ð¾Ð¼": 1464,
    "ÐłÐµÐ»Ð¸": 1465,
    "ÐłÐµÐ»Ð¸Ð³Ð¸": 1466,
    "ÐłÐµÐ»Ð¸Ð³Ð¸Ð¾Ð·": 1467,
    "ÐłÐµÐ»Ð¸Ð³Ð¸Ð¾Ð·Ð½Ñĭ": 1468,
    "ÐłÐµÐ»Ð¸Ð³Ð¸Ð¾Ð·Ð½ÑĭÐµ": 1469,
    "Ð°Ð»Ð»": 1470,
    "Ð°Ð»Ð»ÐµÐ³Ð¾": 1471,
    "Ð°Ð»Ð»ÐµÐ³Ð¾ÑĢ": 1472,
    "Ð°Ð»Ð»ÐµÐ³Ð¾ÑĢÐ¸Ð¸": 1473,
    "ÑįÑĤÐ°Ð»": 1474,
    "ÑįÑĤÐ°Ð»Ð¾Ð½": 1475,
    "Ð¸Ð·Ð¼": 1476,
    "Ð¸Ð·Ð¼ÐµÑĢ": 1477,
    "Ð¸Ð·Ð¼ÐµÑĢÑı": 1478,
    "Ð¸Ð·Ð¼ÐµÑĢÑıÐµÑĤ": 1479,
    "ÑĥÐ·Ð½Ð°": 1480,
    "ÑĥÐ·Ð½Ð°ÑĤÑĮ": 1481,
    "ÑģÐ¾Ð±Ð¾Ð¹": 1482,
    "Ð¿ÑĢÐµÐ´ÑģÑĤÐ°Ð²Ð»Ñı": 1483,
    "Ð¿ÑĢÐµÐ´ÑģÑĤÐ°Ð²Ð»ÑıÐµÑĤ": 1484,
    "ÐŀÐ½Ð¸": 1485,
    "Ð¼Ð¾Ð³ÑĥÑĤ": 1486,
    "Ð½Ð°ÑĥÑĩ": 1487,
    "Ð½Ð°ÑĥÑĩÐ¸ÑĤÑĮ": 1488,
    "Ð´Ð¾Ð±": 1489,
    "Ð´Ð¾Ð±ÑĢÑĥ": 1490,
    "ÑĥÑĩÐµÐ±": 1491,
    "ÑĥÑĩÐµÐ±Ð½Ð¸Ðº": 1492,
    "Ð¼Ð°": 1493,
    "Ð¼Ð°ÑĤ": 1494,
    "Ð¼Ð°ÑĤÐµÐ¼": 1495,
    "Ð¼Ð°ÑĤÐµÐ¼Ð°": 1496,
    "Ð¼Ð°ÑĤÐµÐ¼Ð°ÑĤÐ¸": 1497,
    "Ð¼Ð°ÑĤÐµÐ¼Ð°ÑĤÐ¸Ðº": 1498,
    "Ð¼Ð°ÑĤÐµÐ¼Ð°ÑĤÐ¸ÐºÐµ": 1499,
    "ÐĿÐ¾": 1500,
    "ÑĥÐºÐ°": 1501,
    "ÑĥÐºÐ°Ð·Ñĭ": 1502,
    "ÑĥÐºÐ°Ð·ÑĭÐ²Ð°ÑİÑĤ": 1503,
    "ÑģÐ°Ð¼Ð¾Ð¿": 1504,
    "ÑģÐ°Ð¼Ð¾Ð¿Ð¾Ð·Ð½Ð°": 1505,
    "ÑģÐ°Ð¼Ð¾Ð¿Ð¾Ð·Ð½Ð°Ð½Ð¸Ñı": 1506,
    "Ð¿Ð¾Ð¼Ð¾Ð³Ð°": 1507,
    "Ð¿Ð¾Ð¼Ð¾Ð³Ð°ÑİÑĤ": 1508,
    "ÑģÐ¾Ð·": 1509,
    "ÑģÐ¾Ð·Ð´Ð°ÑĤÑĮ": 1510,
    "ÑģÐ¾Ð±ÑģÑĤÐ²": 1511,
    "ÑģÐ¾Ð±ÑģÑĤÐ²ÐµÐ½": 1512,
    "ÑģÐ¾Ð±ÑģÑĤÐ²ÐµÐ½Ð½ÑĭÐ¹": 1513,
    "Ð¼Ð¾ÑĢÐ°": 1514,
    "Ð¼Ð¾ÑĢÐ°Ð»ÑĮ": 1515,
    "Ð¼Ð¾ÑĢÐ°Ð»ÑĮÐ½ÑĭÐ¹": 1516,
    "ÑģÐ¾Ð¾ÑĤ": 1517,
    "ÑģÐ¾Ð¾ÑĤÐ²": 1518,
    "ÑģÐ¾Ð¾ÑĤÐ²ÐµÑĤ": 1519,
    "ÑģÐ¾Ð¾ÑĤÐ²ÐµÑĤÑģÑĤÐ²ÑĥÐµÑĤ": 1520,
    "Ð²Ð¾Ð·Ð¼Ð¾Ð¶": 1521,
    "Ð²Ð¾Ð·Ð¼Ð¾Ð¶Ð½Ð¾ÑģÑĤ": 1522,
    "Ð²Ð¾Ð·Ð¼Ð¾Ð¶Ð½Ð¾ÑģÑĤÑıÐ¼": 1523,
    "ÑĥÑģÑĤÑĢÐµÐ¼": 1524,
    "ÑĥÑģÑĤÑĢÐµÐ¼Ð»": 1525,
    "ÑĥÑģÑĤÑĢÐµÐ¼Ð»ÐµÐ½Ð¸Ñı": 1526,
    "ÑĥÑģÑĤÑĢÐµÐ¼Ð»ÐµÐ½Ð¸ÑıÐ¼": 1527,
    "Ð½ÐµÑģÑĥ": 1528,
    "Ð½ÐµÑģÑĥÑĤ": 1529,
    "Ð¿ÑĢÐ¸Ð¼": 1530,
    "Ð¿ÑĢÐ¸Ð¼ÐµÑĢ": 1531,
    "Ð½Ð°Ð¸": 1532,
    "Ð½Ð°Ð¸Ð²Ñĭ": 1533,
    "Ð½Ð°Ð¸Ð²ÑĭÑģÑĪÐ¸": 1534,
    "Ð½Ð°Ð¸Ð²ÑĭÑģÑĪÐ¸Ñħ": 1535,
    "ÑģÑĤÑĢÐ°Ð´Ð°Ð½Ð¸": 1536,
    "ÑģÑĤÑĢÐ°Ð´Ð°Ð½Ð¸Ð¹": 1537,
    "Ð¶ÐµÑĢ": 1538,
    "Ð¶ÐµÑĢÑĤ": 1539,
    "Ð¶ÐµÑĢÑĤÐ²ÐµÐ½": 1540,
    "Ð¶ÐµÑĢÑĤÐ²ÐµÐ½Ð½Ð¾ÑģÑĤÐ¸": 1541,
    "Ð½Ð°Ð´ÐµÐ¶Ð´": 1542,
    "Ð½Ð°Ð´ÐµÐ¶Ð´Ñĭ": 1543,
    "Ð¾ÑĤÐ½Ð¾Ñģ": 1544,
    "Ð¾ÑĤÐ½Ð¾ÑģÐ¸ÑĤÑĮÑģÑı": 1545,
    "Ð¿Ð»": 1546,
    "Ð¿Ð»Ñĭ": 1547,
    "Ð¿Ð»ÑĭÑĤÑĮ": 1548,
    "ÑĤÐµÑĩ": 1549,
    "ÑĤÐµÑĩÐµÐ½Ð¸": 1550,
    "ÑĤÐµÑĩÐµÐ½Ð¸Ñİ": 1551,
    "Ð²ÑĭÑı": 1552,
    "Ð²ÑĭÑıÑģ": 1553,
    "Ð²ÑĭÑıÑģÐ½Ð¸ÑĤÑĮ": 1554,
    "ÑĨÐµÐ»ÑĮ": 1555,
    "Ð²ÑĭÐ±": 1556,
    "Ð²ÑĭÐ±ÑĢÐ°ÑĤÑĮÑģÑı": 1557,
    "Ð½Ð°Ð±": 1558,
    "Ð½Ð°Ð±Ð»Ñİ": 1559,
    "Ð½Ð°Ð±Ð»ÑİÐ´Ð°ÑĤÑĮ": 1560,
    "ÐºÐ°ÑĤ": 1561,
    "ÐºÐ°ÑĤÐ¸ÑĤ": 1562,
    "ÑģÐºÐ°Ð·": 1563,
    "ÑģÐºÐ°Ð·Ð°Ð»": 1564,
    "Ð²ÑģÐµÐ¼": 1565,
    "Ð²ÑģÐµÐ¼Ð¸": 1566,
    "ÑģÑĢÐµÐ´ÑģÑĤÐ²Ð°": 1567,
    "ÑģÑĢÐµÐ´ÑģÑĤÐ²Ð°Ð¼Ð¸": 1568,
    "Ð½ÐµÐ¾Ð±": 1569,
    "Ð½ÐµÐ¾Ð±Ñħ": 1570,
    "Ð½ÐµÐ¾Ð±ÑħÐ¾Ð´": 1571,
    "Ð½ÐµÐ¾Ð±ÑħÐ¾Ð´Ð¸Ð¼": 1572,
    "Ð½ÐµÐ¾Ð±ÑħÐ¾Ð´Ð¸Ð¼Ð¾": 1573,
    "ÑģÑĤÐ°ÑĤÑĮ": 1574,
    "ÑĩÐ°ÑģÑĤÑĮ": 1575,
    "ÑĩÐ°ÑģÑĤÑĮÑİ": 1576,
    "ÐĿÐ¸": 1577,
    "ÐĿÐ¸ÐºÐ¾Ð³Ð´Ð°": 1578,
    "Ð±Ð¾": 1579,
    "Ð±Ð¾ÑıÑĤÑĮÑģÑı": 1580,
    "Ð³ÑĢÑı": 1581,
    "Ð³ÑĢÑıÐ·": 1582,
    "Ð³ÑĢÑıÐ·Ð¸": 1583,
    "Ð½Ð¸Ð·Ð¾ÑģÑĤÐ¸": 1584,
    "ÑģÑĤÐ°ÑĢÐ°ÑĤÑĮÑģÑı": 1585,
    "Ð¼ÑĥÐ¶ÐµÑģÑĤÐ²": 1586,
    "Ð¼ÑĥÐ¶ÐµÑģÑĤÐ²ÐµÐ½": 1587,
    "Ð¼ÑĥÐ¶ÐµÑģÑĤÐ²ÐµÐ½Ð½ÑĭÐ¼": 1588,
    "ÑģÐ¾ÑģÑĤ": 1589,
    "ÑģÐ¾ÑģÑĤÑĢÐ°Ð´Ð°Ð½Ð¸": 1590,
    "ÑģÐ¾ÑģÑĤÑĢÐ°Ð´Ð°Ð½Ð¸Ñİ": 1591,
    "ÐľÐ¾": 1592,
    "ÐľÐ¾Ñı": 1593,
    "ÐºÐ¾Ð½": 1594,
    "ÐºÐ¾Ð½ÑĨ": 1595,
    "ÐºÐ¾Ð½ÑĨÐµÐ¿": 1596,
    "ÐºÐ¾Ð½ÑĨÐµÐ¿ÑĨ": 1597,
    "ÐºÐ¾Ð½ÑĨÐµÐ¿ÑĨÐ¸": 1598,
    "ÐºÐ¾Ð½ÑĨÐµÐ¿ÑĨÐ¸Ñı": 1599,
    "Ð¾Ð¿ÑĤ": 1600,
    "Ð¾Ð¿ÑĤÐ¸Ð¼Ð¸": 1601,
    "Ð¾Ð¿ÑĤÐ¸Ð¼Ð¸ÑģÑĤÐ¸": 1602,
    "Ð¾Ð¿ÑĤÐ¸Ð¼Ð¸ÑģÑĤÐ¸Ñĩ": 1603,
    "Ð¾Ð¿ÑĤÐ¸Ð¼Ð¸ÑģÑĤÐ¸ÑĩÐ½Ð°": 1604,
    "Ð¾Ð¿ÑĤÐ¸Ð¼Ð¸ÑģÑĤÐ¸ÑĩÐ½Ð°Ñı": 1605,
    "Ð¾ÑĤÐ½Ð¾": 1606,
    "Ð¾ÑĤÐ½Ð¾ÑĪ": 1607,
    "Ð¾ÑĤÐ½Ð¾ÑĪÐµÐ½Ð¸Ð¸": 1608,
    "ÑĩÐµÐ»Ð¾Ð²ÐµÑĩÐµÑģÑĤÐ²Ð°": 1609,
    "ÐĺÐ½": 1610,
    "ÐĺÐ½Ð´Ð¸Ð²Ð¸Ð´": 1611,
    "Ð½ÐµÐ´": 1612,
    "Ð½ÐµÐ´Ð¾Ð»": 1613,
    "Ð½ÐµÐ´Ð¾Ð»Ð³Ð¾": 1614,
    "Ð¾ÑģÑĤÐ°ÑİÑĤ": 1615,
    "Ð¾ÑģÑĤÐ°ÑİÑĤÑģÑı": 1616,
    "Ð¼ÐµÑĩ": 1617,
    "Ð¼ÐµÑĩÑĤÑĭ": 1618,
    "Ð¿Ð¾Ñħ": 1619,
    "Ð¿Ð¾ÑħÐ¾Ð¶": 1620,
    "Ð¿Ð¾ÑħÐ¾Ð¶Ð¸Ðµ": 1621,
    "ÐĶÐ¾": 1622,
    "ÑĤÐµÑħ": 1623,
    "Ð¿Ð¾ÑĢ": 1624,
    "Ð¿Ð¾ÐºÐ°": 1625,
    "ÑģÑĥÑīÐµÑģÑĤÐ²": 1626,
    "ÑģÑĥÑīÐµÑģÑĤÐ²Ñĥ": 1627,
    "ÑģÑĥÑīÐµÑģÑĤÐ²ÑĥÑİÑĤ": 1628,
    "Ð½Ð°Ð¹Ð´ÑĳÑĤ": 1629,
    "Ð½Ð°Ð¹Ð´ÑĳÑĤÑģÑı": 1630,
    "ÑģÑĤÐ°Ð½ÐµÑĤ": 1631,
    "ÐĳÐ°Ñħ": 1632,
    "ÐĳÐ°ÑħÐ¾Ð¼": 1633,
    "Ð¨": 1634,
    "Ð¨ÐµÐº": 1635,
    "Ð¨ÐµÐºÑģÐ¿": 1636,
    "Ð¨ÐµÐºÑģÐ¿Ð¸": 1637,
    "Ð¨ÐµÐºÑģÐ¿Ð¸ÑĢÐ¾Ð¼": 1638,
    "ÐĴÐķÐłÐĲ": 1639,
    "Ð¡ÐŀÐĵ": 1640,
    "Ð¡ÐŀÐĵÐĽÐĲ": 1641,
    "Ð¡ÐŀÐĵÐĽÐĲÐ¡": 1642,
    "Ð¡ÐŀÐĵÐĽÐĲÐ¡Ðĺ": 1643,
    "Ð¡ÐŀÐĵÐĽÐĲÐ¡ÐĺÐķ": 1644,
    "ÐĴÐŀÐĽ": 1645,
    "ÐĴÐŀÐĽÐĺ": 1646,
    "Ð¡ÐŀÐĴÐķ": 1647,
    "Ð¡ÐŀÐĴÐķÐ¡": 1648,
    "Ð¡ÐŀÐĴÐķÐ¡Ð¢Ð¬Ð®": 1649,
    "Ð¡Ð£": 1650,
    "Ð¡Ð£Ð©": 1651,
    "Ð¡Ð£Ð©ÐĿ": 1652,
    "Ð¡Ð£Ð©ÐĿÐŀÐ¡": 1653,
    "Ð¡Ð£Ð©ÐĿÐŀÐ¡Ð¢Ð¬": 1654,
    "ÐĴÐķÐłÐ«": 1655,
    "Ð¡ÐŀÐ¡": 1656,
    "Ð¡ÐŀÐ¡Ð¢ÐŀÐ": 1657,
    "Ð¡ÐŀÐ¡Ð¢ÐŀÐĺ": 1658,
    "Ð¡ÐŀÐ¡Ð¢ÐŀÐĺÐ¢": 1659,
    "Ð¢ÐŀÐľ": 1660,
    "Ð§Ð¢Ðŀ": 1661,
    "ÐŀÐĿ": 1662,
    "ÐŀÐĿÐĲ": 1663,
    "ÐŁÐł": 1664,
    "ÐŁÐłÐĺÐ": 1665,
    "ÐŁÐłÐĺÐĶ": 1666,
    "ÐŁÐłÐĺÐĶÐĲ": 1667,
    "ÐŁÐłÐĺÐĶÐĲÐģÐ¢": 1668,
    "Ð¢ÐĲÐļÐŀÐĻ": 1669,
    "Ð¡ÐľÐ«": 1670,
    "Ð¡ÐľÐ«Ð¡": 1671,
    "Ð¡ÐľÐ«Ð¡ÐĽ": 1672,
    "ÐļÐŀÐ¢": 1673,
    "ÐļÐŀÐ¢ÐŀÐ": 1674,
    "ÐļÐŀÐ¢ÐŀÐł": 1675,
    "ÐļÐŀÐ¢ÐŀÐłÐ«": 1676,
    "ÐļÐŀÐ¢ÐŀÐłÐ«ÐĻ": 1677,
    "Ð£ÐĿÐĺÐ": 1678,
    "Ð£ÐĿÐĺÐ§": 1679,
    "Ð£ÐĿÐĺÐ§Ð¢ÐŀÐ": 1680,
    "Ð£ÐĿÐĺÐ§Ð¢ÐŀÐĸ": 1681,
    "Ð£ÐĿÐĺÐ§Ð¢ÐŀÐĸÐĲ": 1682,
    "Ð£ÐĿÐĺÐ§Ð¢ÐŀÐĸÐĲÐķ": 1683,
    "Ð£ÐĿÐĺÐ§Ð¢ÐŀÐĸÐĲÐķÐ¢": 1684,
    "Ð£ÐĿÐĺÐ§Ð¢ÐŀÐĸÐĲÐķÐ¢Ð¡": 1685,
    "Ð£ÐĿÐĺÐ§Ð¢ÐŀÐĸÐĲÐķÐ¢Ð¡Ð¯": 1686,
    "Ð¡ÐľÐķ": 1687,
    "Ð¡ÐľÐķÐł": 1688,
    "Ð¡ÐľÐķÐłÐ¢Ð¬Ð®": 1689,
    "ÐĴÐ¢ÐŀÐ": 1690,
    "ÐĴÐ¢ÐŀÐł": 1691,
    "ÐĴÐ¢ÐŀÐłÐĲ": 1692,
    "ÐĴÐ¢ÐŀÐłÐĲÐ¯": 1693,
    "ÐļÐĿÐĺÐ": 1694,
    "ÐļÐĿÐĺÐĵ": 1695,
    "ÐļÐĿÐĺÐĵÐĲ": 1696,
    "ÐľÐŀÐĺ": 1697,
    "ÐľÐŀÐĺÐ¡Ðķ": 1698,
    "ÐľÐŀÐĺÐ¡ÐķÐķ": 1699,
    "ÐľÐŀÐĺÐ¡ÐķÐķÐĴÐĲ": 1700,
    "ÐĺÐ¡": 1701,
    "ÐĺÐ¡Ð¥": 1702,
    "ÐĺÐ¡Ð¥ÐŀÐĶ": 1703,
    "ÐĵÐĽÐĲ": 1704,
    "ÐĵÐĽÐĲÐĴÐĲ": 1705,
    "Ð¥Ð¥": 1706,
    "ÐĵÐ¾ÑģÐ¿Ð¾Ð´Ð°": 1707,
    "ÐĳÐ¾Ð³Ð°": 1708,
    "Ð½Ð°Ð¿ÑĢÐ°": 1709,
    "Ð½Ð°Ð¿ÑĢÐ°Ñģ": 1710,
    "Ð½Ð°Ð¿ÑĢÐ°ÑģÐ½Ð¾": 1711,
    "Ð¾ÑĤÑĨ": 1712,
    "Ð¾ÑĤÑĨÐ°": 1713,
    "Ð¼Ð°ÑĤÑĮ": 1714,
    "ÑĤÐ²Ð¾Ñİ": 1715,
    "Ð±ÑĭÐ»Ð¾": 1716,
    "ÑħÐ¾ÑĢ": 1717,
    "ÑħÐ¾ÑĢÐ¾": 1718,
    "ÑħÐ¾ÑĢÐ¾ÑĪ": 1719,
    "ÑħÐ¾ÑĢÐ¾ÑĪÐ¾": 1720,
    "Ð¿ÑĢÐ¾Ð´": 1721,
    "Ð¿ÑĢÐ¾Ð´Ð»Ð¸": 1722,
    "Ð¿ÑĢÐ¾Ð´Ð»Ð¸Ð»Ð¸": 1723,
    "Ð¿ÑĢÐ¾Ð´Ð»Ð¸Ð»Ð¸Ñģ": 1724,
    "Ð¿ÑĢÐ¾Ð´Ð»Ð¸Ð»Ð¸ÑģÑĮ": 1725,
    "Ð´Ð½Ð¸": 1726,
    "ÐºÐ¾ÑĤÐ¾ÑĢÑĥ": 1727,
    "ÐºÐ¾ÑĤÐ¾ÑĢÑĥÑİ": 1728,
    "ÐĵÐ¾ÑģÐ¿Ð¾Ð´": 1729,
    "ÐĵÐ¾ÑģÐ¿Ð¾Ð´ÑĮ": 1730,
    "ÐĳÐ¾Ð³": 1731,
    "Ð´Ð°ÑĳÑĤ": 1732,
    "ÑĥÐ±Ð¸Ð²": 1733,
    "ÑĥÐ±Ð¸Ð²Ð°Ð¹": 1734,
    "ÐºÑĢÐ°": 1735,
    "ÐºÑĢÐ°Ð´Ð¸": 1736,
    "Ð»Ð¾Ð¶": 1737,
    "Ð»Ð¾Ð¶Ð½Ð¾Ð³Ð¾": 1738,
    "ÑģÐ²Ð¸Ð´": 1739,
    "ÑģÐ²Ð¸Ð´ÐµÑĤ": 1740,
    "ÑģÐ²Ð¸Ð´ÐµÑĤÐµÐ»ÑĮ": 1741,
    "ÑģÐ²Ð¸Ð´ÐµÑĤÐµÐ»ÑĮÑģÑĤÐ²Ð°": 1742,
    "Ð¶ÐµÐ½Ñĭ": 1743,
    "Ð¸Ð¼Ñĥ": 1744,
    "Ð¸Ð¼ÑĥÑī": 1745,
    "Ð¸Ð¼ÑĥÑīÐµÑģÑĤÐ²Ð°": 1746,
    "ÐĴÐŀ": 1747,
    "ÐĴÐ¡Ðģ": 1748,
    "ÐĴÐ¡ÐģÐľ": 1749,
    "Ð¥ÐŀÐ¢": 1750,
    "Ð¥ÐŀÐ¢Ðĺ": 1751,
    "Ð¥ÐŀÐ¢ÐĺÐ¢Ðķ": 1752,
    "Ð§Ð¢ÐŀÐ": 1753,
    "Ð§Ð¢ÐŀÐĳ": 1754,
    "Ð§Ð¢ÐŀÐĳÐ«": 1755,
    "ÐĴÐĲÐľÐĺ": 1756,
    "ÐŁÐŀÐ¡Ð¢Ð£ÐŁÐĲÐĽ": 1757,
    "ÐŁÐŀÐ¡Ð¢Ð£ÐŁÐĲÐĽÐĺ": 1758,
    "ÐĽÐ®ÐĶÐĺ": 1759,
    "ÐŁÐŀÐ¡Ð¢Ð£ÐŁÐĲ": 1760,
    "ÐŁÐŀÐ¡Ð¢Ð£ÐŁÐĲÐĻ": 1761,
    "ÐŁÐŀÐ¡Ð¢Ð£ÐŁÐĲÐĻÐ¢Ðķ": 1762,
    "ÐĴÐ«": 1763,
    "ÐĿÐĺÐľÐĺ": 1764,
    "ÐĴÐŀÐĹ": 1765,
    "ÐĴÐŀÐĹÐĽÐ®ÐĳÐĺ": 1766,
    "ÐĳÐĽ": 1767,
    "ÐĳÐĽÐĺÐ": 1768,
    "ÐĳÐĽÐĺÐĸ": 1769,
    "ÐĳÐĽÐĺÐĸÐĿÐķ": 1770,
    "ÐĳÐĽÐĺÐĸÐĿÐķÐĵÐŀ": 1771,
    "Ð¢ÐĴÐŀÐ": 1772,
    "Ð¢ÐĴÐŀÐķ": 1773,
    "Ð¢ÐĴÐŀÐķÐĵÐŀ": 1774,
    "Ð¡ÐĲ": 1775,
    "Ð¡ÐĲÐľÐŀÐ": 1776,
    "Ð¡ÐĲÐľÐŀÐĵ": 1777,
    "Ð¡ÐĲÐľÐŀÐĵÐŀ": 1778,
    "ÐľÐĲ": 1779,
    "ÐľÐĲÐ¢": 1780,
    "ÐľÐĲÐ¢Ð¤": 1781,
    "ÐľÐĲÐ¢Ð¤Ðķ": 1782,
    "ÐľÐĲÐ¢Ð¤ÐķÐ¯": 1783,
    "ÐĿÐĺÐļÐŀÐ": 1784,
    "ÐĿÐĺÐļÐŀÐĵ": 1785,
    "ÐĿÐĺÐļÐŀÐĵÐĶ": 1786,
    "ÐĿÐĺÐļÐŀÐĵÐĶÐĲ": 1787,
    "ÐŁÐķ": 1788,
    "ÐŁÐķÐłÐķ": 1789,
    "ÐŁÐķÐłÐķÐ¡": 1790,
    "ÐŁÐķÐłÐķÐ¡Ð¢ÐĲ": 1791,
    "ÐŁÐķÐłÐķÐ¡Ð¢ÐĲÐģÐ¢": 1792,
    "Ð³Ð¾Ð²Ð¾ÑĢ": 1793,
    "Ð³Ð¾Ð²Ð¾ÑĢÑİ": 1794,
    "ÑıÐ·Ñĭ": 1795,
    "ÑıÐ·ÑĭÐºÐ°Ð¼Ð¸": 1796,
    "ÑĩÐµÐ»Ð¾Ð²ÐµÑĩÐµÑģ": 1797,
    "ÑĩÐµÐ»Ð¾Ð²ÐµÑĩÐµÑģÐº": 1798,
    "ÑĩÐµÐ»Ð¾Ð²ÐµÑĩÐµÑģÐºÐ¸Ð¼Ð¸": 1799,
    "Ð°Ð½Ð³": 1800,
    "Ð°Ð½Ð³ÐµÐ»ÑĮ": 1801,
    "Ð°Ð½Ð³ÐµÐ»ÑĮÑģÐº": 1802,
    "Ð°Ð½Ð³ÐµÐ»ÑĮÑģÐºÐ¸Ð¼Ð¸": 1803,
    "Ð¼ÐµÐ´ÑĮ": 1804,
    "Ð·Ð²ÐµÐ½": 1805,
    "Ð·Ð²ÐµÐ½Ñı": 1806,
    "Ð·Ð²ÐµÐ½ÑıÑī": 1807,
    "Ð·Ð²ÐµÐ½ÑıÑīÐ°Ñı": 1808,
    "Ð¿ÑĢÐ¾ÑĢ": 1809,
    "Ð¿ÑĢÐ¾ÑĢÐ¾Ñĩ": 1810,
    "Ð¿ÑĢÐ¾ÑĢÐ¾ÑĩÐµÑģÑĤÐ²Ð°": 1811,
    "Ð·Ð½Ð°Ñİ": 1812,
    "Ð²ÑģÐµ": 1813,
    "ÑĤÐ°Ð¹": 1814,
    "ÑĤÐ°Ð¹Ð½Ñĭ": 1815,
    "Ð²ÑģÑıÐºÐ¾": 1816,
    "Ð²ÑģÑıÐºÐ¾Ðµ": 1817,
    "Ð¿Ð¾Ð·Ð½Ð°": 1818,
    "Ð¿Ð¾Ð·Ð½Ð°Ð½Ð¸Ðµ": 1819,
    "Ð²ÑģÑİ": 1820,
    "Ð²ÐµÑĢÑĥ": 1821,
    "Ð³Ð¾ÑĢÑĭ": 1822,
    "Ð¿ÐµÑĢÐµÑģÑĤÐ°Ð²": 1823,
    "Ð¿ÐµÑĢÐµÑģÑĤÐ°Ð²Ð»": 1824,
    "Ð¿ÐµÑĢÐµÑģÑĤÐ°Ð²Ð»ÑıÑĤÑĮ": 1825,
    "Ð½Ð¸ÑĩÑĤÐ¾": 1826,
    "ÑĢÐ°Ð·Ð´Ð°Ð¼": 1827,
    "Ð¸Ð¼ÐµÐ½Ð¸Ðµ": 1828,
    "Ð¾ÑĤÐ´Ð°Ð¼": 1829,
    "ÑĤÐµÐ»Ð¾": 1830,
    "ÑģÐ¾Ð¶": 1831,
    "ÑģÐ¾Ð¶Ð¶": 1832,
    "ÑģÐ¾Ð¶Ð¶ÐµÐ½Ð¸": 1833,
    "ÑģÐ¾Ð¶Ð¶ÐµÐ½Ð¸Ðµ": 1834,
    "Ð¼Ð½Ðµ": 1835,
    "Ð½Ð¸ÐºÐ°ÐºÐ¾Ð¹": 1836,
    "Ð´Ð¾Ð»Ð³Ð¾": 1837,
    "Ð´Ð¾Ð»Ð³Ð¾ÑĤÐµÑĢÐ¿": 1838,
    "Ð´Ð¾Ð»Ð³Ð¾ÑĤÐµÑĢÐ¿Ð¸ÑĤ": 1839,
    "Ð¼Ð¸Ð»Ð¾": 1840,
    "Ð¼Ð¸Ð»Ð¾ÑģÐµÑĢÐ´": 1841,
    "Ð¼Ð¸Ð»Ð¾ÑģÐµÑĢÐ´ÑģÑĤÐ²ÑĥÐµÑĤ": 1842,
    "Ð·Ð°Ð²Ð¸Ð´": 1843,
    "Ð·Ð°Ð²Ð¸Ð´ÑĥÐµÑĤ": 1844,
    "Ð³Ð¾ÑĢÐ´Ð¸ÑĤÑģÑı": 1845,
    "ÑģÐ²Ð¾ÐµÐ³Ð¾": 1846,
    "ÑĢÐ°Ð·Ð´": 1847,
    "ÑĢÐ°Ð·Ð´ÑĢÐ°": 1848,
    "ÑĢÐ°Ð·Ð´ÑĢÐ°Ð¶": 1849,
    "ÑĢÐ°Ð·Ð´ÑĢÐ°Ð¶Ð°ÐµÑĤÑģÑı": 1850,
    "Ð¼ÑĭÑģÐ»": 1851,
    "Ð¼ÑĭÑģÐ»Ð¸ÑĤ": 1852,
    "Ð·Ð»Ð°": 1853,
    "Ð½ÐµÐ¿ÑĢÐ°Ð²": 1854,
    "Ð½ÐµÐ¿ÑĢÐ°Ð²Ð´Ðµ": 1855,
    "ÑģÐ¾ÑĢÐ°Ð´ÑĥÐµÑĤÑģÑı": 1856,
    "Ð¸ÑģÑĤÐ¸Ð½Ðµ": 1857,
    "ÐĴÑģÑĳ": 1858,
    "Ð¿Ð¾ÐºÑĢÑĭ": 1859,
    "Ð¿Ð¾ÐºÑĢÑĭÐ²": 1860,
    "Ð¿Ð¾ÐºÑĢÑĭÐ²Ð°ÐµÑĤ": 1861,
    "Ð²ÑģÐµÐ¼Ñĥ": 1862,
    "Ð²ÐµÑĢÐ¸ÑĤ": 1863,
    "Ð²ÑģÐµÐ³Ð¾": 1864,
    "Ð½Ð°Ð´Ðµ": 1865,
    "Ð½Ð°Ð´ÐµÐµÑĤÑģÑı": 1866,
    "Ð¿ÐµÑĢÐµÐ½Ð¾Ñģ": 1867,
    "Ð¿ÐµÑĢÐµÐ½Ð¾ÑģÐ¸ÑĤ": 1868,
    "Ð½Ð¸ÐºÐ¾Ð³Ð´Ð°": 1869,
    "Ð¿ÐµÑĢÐµÑģÑĤÐ°": 1870,
    "Ð¿ÐµÑĢÐµÑģÑĤÐ°ÑĳÑĤ": 1871,
    "ÑĤÐµÐ¿": 1872,
    "ÑĤÐµÐ¿ÐµÑĢ": 1873,
    "ÑĤÐµÐ¿ÐµÑĢÑĮ": 1874,
    "Ð¿ÑĢÐµÐ±": 1875,
    "Ð¿ÑĢÐµÐ±Ñĭ": 1876,
    "Ð¿ÑĢÐµÐ±ÑĭÐ²Ð°ÑİÑĤ": 1877,
    "ÑģÐ¸Ð¸": 1878,
    "ÑĤÑĢÐ¸": 1879,
    "Ð²Ðµ": 1880,
    "Ð²ÐµÑĢÐ°": 1881,
    "Ð½Ð°Ð´ÐµÐ¶Ð´Ð°": 1882,
    "ÐŁÐµÑĢ": 1883,
    "ÐŁÐµÑĢÐ²Ð¾": 1884,
    "ÐŁÐµÑĢÐ²Ð¾Ðµ": 1885,
    "Ð¿Ð¾Ñģ": 1886,
    "Ð¿Ð¾ÑģÐ»Ð°": 1887,
    "Ð¿Ð¾ÑģÐ»Ð°Ð½Ð¸Ðµ": 1888,
    "ÐºÐ¾ÑĢÐ¸Ð½ÑĦÑıÐ½Ð°": 1889,
    "ÐºÐ¾ÑĢÐ¸Ð½ÑĦÑıÐ½Ð°Ð¼": 1890,
    "Ð¡Ð²": 1891,
    "ÐĲÐ¿Ð¾ÑģÑĤ": 1892,
    "ÐĲÐ¿Ð¾ÑģÑĤÐ¾Ð»": 1893,
    "ÐĲÐ¿Ð¾ÑģÑĤÐ¾Ð»Ð°": 1894,
    "ÐŁÐ°": 1895,
    "ÐŁÐ°Ð²Ð»Ð°": 1896,
    "ÑĢÐ°Ð·Ð²ÑĢÐ°": 1897,
    "ÑĢÐ°Ð·Ð²ÑĢÐ°ÑĤ": 1898,
    "ÑĢÐ°Ð·Ð²ÑĢÐ°ÑĤÐ½Ð¸": 1899,
    "ÑĢÐ°Ð·Ð²ÑĢÐ°ÑĤÐ½Ð¸Ñĩ": 1900,
    "ÑĢÐ°Ð·Ð²ÑĢÐ°ÑĤÐ½Ð¸ÑĩÐ°Ð¹": 1901,
    "ÑģÑĤÐ°Ð²Ð¸ÑĤ": 1902,
    "Ð²ÑģÐµÑħ": 1903,
    "Ð½Ð°ÑĢÑĥÑĪ": 1904,
    "Ð½Ð°ÑĢÑĥÑĪÐ°ÐµÑĤ": 1905,
    "Ð·Ð°ÐºÐ¾": 1906,
    "Ð·Ð°ÐºÐ¾Ð½Ð¾Ð²": 1907,
    "ÐºÐ¾ÑĢÐ¸Ð½ÑĦÑıÐ½Ðµ": 1908,
    "Ð¶Ð¸ÑĤÐµÐ»Ð¸": 1909,
    "Ð³Ð¾ÑĢÐ¾Ð´Ð°": 1910,
    "ÐļÐ¾ÑĢ": 1911,
    "ÐļÐ¾ÑĢÐ¸Ð½ÑĦ": 1912,
    "ÐļÐ¾ÑĢÐ¸Ð½ÑĦÐ°": 1913,
    "Ð¢ÐŀÐ¢": 1914,
    "ÐļÐ¢Ðŀ": 1915,
    "ÐŁÐŀ": 1916,
    "ÐĿÐĲÐ¡Ð¢ÐŀÐ": 1917,
    "ÐĿÐĲÐ¡Ð¢ÐŀÐ¯": 1918,
    "ÐĿÐĲÐ¡Ð¢ÐŀÐ¯Ð©": 1919,
    "ÐĿÐĲÐ¡Ð¢ÐŀÐ¯Ð©Ðķ": 1920,
    "ÐĿÐĲÐ¡Ð¢ÐŀÐ¯Ð©ÐķÐľ": 1921,
    "ÐĿÐĲÐ¡Ð¢ÐŀÐ¯Ð©ÐķÐľÐ£": 1922,
    "ÐŀÐĶÐĿ": 1923,
    "ÐŀÐĶÐĿÐŀÐĵ": 1924,
    "ÐŀÐĶÐĿÐŀÐĵÐŀ": 1925,
    "Ð§Ðķ": 1926,
    "Ð§ÐķÐĽ": 1927,
    "Ð§ÐķÐĽÐŀÐĴÐķ": 1928,
    "Ð§ÐķÐĽÐŀÐĴÐķÐļÐĲ": 1929,
    "ÐĴÐķÐ¡": 1930,
    "ÐĴÐķÐ¡Ð¬": 1931,
    "ÐľÐĺÐł": 1932,
    "Ð¤Ðł": 1933,
    "Ð¤ÐłÐŀÐ": 1934,
    "Ð¤ÐłÐŀÐľ": 1935,
    "Ð³Ð»Ð°Ð²Ð½Ñĥ": 1936,
    "Ð³Ð»Ð°Ð²Ð½ÑĥÑİ": 1937,
    "ÑģÑĤÑĢÐ°Ð½Ð¸": 1938,
    "ÑģÑĤÑĢÐ°Ð½Ð¸ÑĨ": 1939,
    "ÑģÑĤÑĢÐ°Ð½Ð¸ÑĨÑĥ": 1940,
    "ÐºÐ°ÑĤÐ°Ð»": 1941,
    "ÐºÐ°ÑĤÐ°Ð»Ð¾Ð³": 1942
  },
  "merges": [
    [
      "Ð",
      "¾"
    ],
    [
      "Ð",
      "µ"
    ],
    [
      "Ñ",
      "Ĥ"
    ],
    [
      "Ð",
      "¸"
    ],
    [
      "Ð",
      "½"
    ],
    [
      "Ð",
      "°"
    ],
    [
      "Ñ",
      "ģ"
    ],
    [
      "Ð",
      "²"
    ],
    [
      "Ðµ",
      "Ð"
    ],
    [
      "Ñ",
      "Ģ"
    ],
    [
      "Ð¾",
      "Ð"
    ],
    [
      "Ñ",
      "ı"
    ],
    [
      "Ñ",
      "ĥ"
    ],
    [
      "Ñ",
      "Į"
    ],
    [
      "Ð",
      "¼"
    ],
    [
      "Ð",
      "´"
    ],
    [
      "Ð",
      "»"
    ],
    [
      "Ð",
      "¿"
    ],
    [
      "Ñ",
      "ĩ"
    ],
    [
      "Ð",
      "º"
    ],
    [
      "Ñ",
      "ĭ"
    ],
    [
      "Ñģ",
      "ÑĤ"
    ],
    [
      "ÑĤ",
      "ÑĮ"
    ],
    [
      "Ð",
      "ŀ"
    ],
    [
      "Ð",
      "±"
    ],
    [
      "Ð½",
      "Ðµ"
    ],
    [
      "Ð¾",
      "Ð²"
    ],
    [
      "Ð",
      "·"
    ],
    [
      "Ð½",
      "Ð¸"
    ],
    [
      "ÐµÐ",
      "»"
    ],
    [
      "Ðµ",
      "ÑĤ"
    ],
    [
      "ÐµÐ",
      "¼"
    ],
    [
      "Ð½",
      "Ð°"
    ],
    [
      "³",
      "Ð¾"
    ],
    [
      "Ðŀ",
      "Ð"
    ],
    [
      "Ñ",
      "İ"
    ],
    [
      "Ñģ",
      "Ñı"
    ],
    [
      "ÑĢ",
      "Ð°"
    ],
    [
      "ÑĤ",
      "Ð¾"
    ],
    [
      "Ð",
      "ĺ"
    ],
    [
      "Ð",
      "¶"
    ],
    [
      "Ñ",
      "Ī"
    ],
    [
      "Ð",
      "¹"
    ],
    [
      "Ð",
      "¢"
    ],
    [
      "Ð",
      "Ŀ"
    ],
    [
      "Ð",
      "Ĵ"
    ],
    [
      "Ð",
      "ķ"
    ],
    [
      "Ðµ",
      "ÑĢ"
    ],
    [
      "ÑĢ",
      "ÐµÐ¼"
    ],
    [
      "Ð½",
      "Ð¾"
    ],
    [
      "Ð",
      "¡"
    ],
    [
      "Ð",
      "ļ"
    ],
    [
      "ÑĢÐµÐ¼",
      "Ñı"
    ],
    [
      "Ð¸",
      "ÑĤ"
    ],
    [
      "Ð",
      "Ĳ"
    ],
    [
      "Ð°",
      "ÑĤÑĮ"
    ],
    [
      "Ð",
      "³"
    ],
    [
      "Ð¾Ð",
      "¼"
    ],
    [
      "Ð²",
      "Ð¾"
    ],
    [
      "Ð¿",
      "Ð¾"
    ],
    [
      "Ð¾Ð",
      "»"
    ],
    [
      "Ñ",
      "ħ"
    ],
    [
      "Ñĩ",
      "ÐµÐ»"
    ],
    [
      "ÑĩÐµÐ»",
      "Ð¾Ð²"
    ],
    [
      "Ð¸",
      "Ð¼"
    ],
    [
      "Ð»",
      "Ð¸"
    ],
    [
      "Ð²",
      "ÑĢÐµÐ¼Ñı"
    ],
    [
      "Ð¾Ð",
      "´"
    ],
    [
      "Ð¾Ð",
      "±"
    ],
    [
      "Ð¾Ð",
      "³"
    ],
    [
      "ÐµÐ",
      "³Ð¾"
    ],
    [
      "Ñ",
      "ĳ"
    ],
    [
      "Ð½",
      "Ñĭ"
    ],
    [
      "ÐµÐ",
      "º"
    ],
    [
      "ÐµÐ",
      "±"
    ],
    [
      "Ð",
      "Ľ"
    ],
    [
      "Ð´",
      "Ð°"
    ],
    [
      "Ð¿",
      "ÑĢ"
    ],
    [
      "ÑģÑĤ",
      "Ð²"
    ],
    [
      "ÑĩÐµÐ»Ð¾Ð²",
      "ÐµÐº"
    ],
    [
      "Ðº",
      "Ð¾"
    ],
    [
      "Ðµ",
      "Ð½"
    ],
    [
      "Ðº",
      "Ð°"
    ],
    [
      "Ð¾",
      "ÑĤ"
    ],
    [
      "Ð»",
      "Ñİ"
    ],
    [
      "Ð",
      "ľ"
    ],
    [
      "Ñ",
      "ī"
    ],
    [
      "Ð",
      "ĳ"
    ],
    [
      "ÑģÑĤ",
      "Ð°"
    ],
    [
      "Ð¾Ð",
      "¹"
    ],
    [
      "Ð¼",
      "Ð¸"
    ],
    [
      "Ð¸",
      "ÑĤÑĮ"
    ],
    [
      "Ð¾",
      "Ð½"
    ],
    [
      "Ð¾Ð",
      "³Ð¾"
    ],
    [
      "Ð²",
      "Ñģ"
    ],
    [
      "â",
      "Ģ"
    ],
    [
      "Ñ",
      "Ĩ"
    ],
    [
      "ÐĿ",
      "Ðµ"
    ],
    [
      "Ñĥ",
      "Ð¶"
    ],
    [
      "ÐµÐ",
      "´"
    ],
    [
      "Ð",
      "Ł"
    ],
    [
      "Ð",
      "¯"
    ],
    [
      "Ð»",
      "Ð°"
    ],
    [
      "Ð²",
      "Ð¸"
    ],
    [
      "Ñĥ",
      "Ñĩ"
    ],
    [
      "Ð°",
      "ÐµÑĤ"
    ],
    [
      "Ð",
      "£"
    ],
    [
      "Ðµ",
      "Ð½Ð¸"
    ],
    [
      "Ð",
      "ł"
    ],
    [
      "Ð¾",
      "ÑĢ"
    ],
    [
      "Ð»Ñİ",
      "Ð±"
    ],
    [
      "Ñĥ",
      "ÐµÑĤ"
    ],
    [
      "Ñĥ",
      "Ð´"
    ],
    [
      "ÑĤ",
      "Ð²Ð¾"
    ],
    [
      "Ñĩ",
      "ÑĤÐ¾"
    ],
    [
      "Ð¸",
      "Ð·"
    ],
    [
      "Ð",
      "®"
    ],
    [
      "Ð¢",
      "ÐŀÐ"
    ],
    [
      "Ðµ",
      "Ñģ"
    ],
    [
      "Ð¾Ð",
      "¶"
    ],
    [
      "ÑĢ",
      "Ñĭ"
    ],
    [
      "ÑĢ",
      "Ñĥ"
    ],
    [
      "ÑĪ",
      "Ðµ"
    ],
    [
      "Ð¸ÑĤ",
      "ÑģÑı"
    ],
    [
      "Ð°",
      "Ð»"
    ],
    [
      "ÐµÐ",
      "¹"
    ],
    [
      "Ðµ",
      "Ñĩ"
    ],
    [
      "Ð½Ð¾",
      "ÑģÑĤ"
    ],
    [
      "Ð",
      "³Ð¾"
    ],
    [
      "Ñģ",
      "Ð»"
    ],
    [
      "Ð²",
      "Ñĭ"
    ],
    [
      "ÑĤ",
      "Ð¸"
    ],
    [
      "Ñģ",
      "ÐµÐ±"
    ],
    [
      "ÐºÐ¾",
      "ÑĤÐ¾"
    ],
    [
      "Ð°",
      "Ð¹"
    ],
    [
      "ÐĽ",
      "Ð®"
    ],
    [
      "Ðļ",
      "ÐŀÐ"
    ],
    [
      "Ñı",
      "ÑĤÑĮ"
    ],
    [
      "Ð¾Ð»",
      "ÑĮ"
    ],
    [
      "Ð·",
      "Ð°"
    ],
    [
      "Ðĺ",
      "Ð"
    ],
    [
      "Ð½Ñĭ",
      "Ð¹"
    ],
    [
      "Ð±",
      "Ñĭ"
    ],
    [
      "Ðµ",
      "ÑģÑĤÐ²"
    ],
    [
      "Ð¼",
      "ÑĥÐ¶"
    ],
    [
      "Ð¾Ð",
      "·"
    ],
    [
      "Ð",
      "¬"
    ],
    [
      "âĢ",
      "¦"
    ],
    [
      "ÐĴ",
      "ÑĢÐµÐ¼Ñı"
    ],
    [
      "ÑĢÐ°",
      "Ð·"
    ],
    [
      "Ð»",
      "Ñı"
    ],
    [
      "ÑĤ",
      "ÐµÑĢ"
    ],
    [
      "ÐµÐ",
      "³"
    ],
    [
      "Ð´",
      "Ð¸"
    ],
    [
      "ÑĪ",
      "Ð¸"
    ],
    [
      "Ð¾Ð²",
      "Ð¾ÑĢ"
    ],
    [
      "Ð²Ð¸",
      "Ð´"
    ],
    [
      "Ñģ",
      "Ð¿"
    ],
    [
      "ÑĤ",
      "Ð¾Ð¼"
    ],
    [
      "Ð±",
      "ÑĥÐ´"
    ],
    [
      "ÑģÐµÐ±",
      "Ñı"
    ],
    [
      "Ð¾Ð",
      "¿"
    ],
    [
      "ÑĤÐ²Ð¾",
      "ÐµÐ³Ð¾"
    ],
    [
      "ÐµÐ»",
      "ÑĮ"
    ],
    [
      "Ñİ",
      "ÑĤ"
    ],
    [
      "ÑĩÐµÐ»Ð¾Ð²",
      "ÐµÑĩ"
    ],
    [
      "ÐĽÐ®",
      "Ðĳ"
    ],
    [
      "ÐµÐ¼",
      "Ñĥ"
    ],
    [
      "Ñģ",
      "Ð²Ð¾"
    ],
    [
      "ÑĢÐ°",
      "ÑĤÑĮ"
    ],
    [
      "Ñĥ",
      "Ð±"
    ],
    [
      "Ñģ",
      "Ðº"
    ],
    [
      "ÐµÐ",
      "¶"
    ],
    [
      "ÑģÑĤ",
      "Ð²Ð¾"
    ],
    [
      "Ð¾Ð",
      "º"
    ],
    [
      "Ñĥ",
      "Ð¿"
    ],
    [
      "Ñģ",
      "Ð»Ð¸"
    ],
    [
      "Ð½Ð¾ÑģÑĤ",
      "ÑĮ"
    ],
    [
      "Ñĳ",
      "ÑĤ"
    ],
    [
      "ÑģÐ»",
      "Ð¾Ð²"
    ],
    [
      "Ð¾",
      "ÑģÑĤ"
    ],
    [
      "Ñĩ",
      "ÑĤ"
    ],
    [
      "ÑĩÑĤ",
      "Ð¾Ð±"
    ],
    [
      "ÑĩÑĤÐ¾Ð±",
      "Ñĭ"
    ],
    [
      "Ñĩ",
      "Ð¸ÑĤ"
    ],
    [
      "Ð·",
      "Ð½Ð°"
    ],
    [
      "ÐºÐ¾ÑĤÐ¾",
      "ÑĢÑĭ"
    ],
    [
      "Ð¾Ð³",
      "Ð´Ð°"
    ],
    [
      "Ð¸Ð¼",
      "Ðµ"
    ],
    [
      "Ð",
      "Ķ"
    ],
    [
      "Ð",
      "ĵ"
    ],
    [
      "Ð",
      "«"
    ],
    [
      "Ð¸",
      "Ð½"
    ],
    [
      "Ð½Ð¾",
      "Ñģ"
    ],
    [
      "Ð¾Ð²",
      "ÑĮ"
    ],
    [
      "Ðµ",
      "Ñī"
    ],
    [
      "Ð´",
      "Ð°ÑĤÑĮ"
    ],
    [
      "Ñģ",
      "Ð°"
    ],
    [
      "Ð²",
      "Ð°ÑĤÑĮ"
    ],
    [
      "Ñģ",
      "Ð¼"
    ],
    [
      "Ñģ",
      "Ð¾Ð±"
    ],
    [
      "Ð¾Ð²Ð¾ÑĢ",
      "Ð¸ÑĤÑĮ"
    ],
    [
      "ÑĥÑĩ",
      "ÑĪÐµ"
    ],
    [
      "ÑĤ",
      "ÐµÐ±"
    ],
    [
      "ÑĤÐµÐ±",
      "Ðµ"
    ],
    [
      "Ñģ",
      "ÐµÑĢ"
    ],
    [
      "ÑĤÐ¾Ð¼",
      "Ñĥ"
    ],
    [
      "Ð·",
      "Ñĭ"
    ],
    [
      "ÑĤ",
      "Ð¾Ð³Ð¾"
    ],
    [
      "Ñ",
      "į"
    ],
    [
      "Ñĩ",
      "Ð°"
    ],
    [
      "Ð½",
      "Ð¾Ð³Ð¾"
    ],
    [
      "Ð¾Ð´",
      "Ð°"
    ],
    [
      "Ð¢",
      "ÐĲ"
    ],
    [
      "Ð²",
      "Ð°"
    ],
    [
      "ÑģÑĤÐ²",
      "ÑĥÐµÑĤ"
    ],
    [
      "ÑĢÐ°",
      "Ð²"
    ],
    [
      "Ð´",
      "Ðµ"
    ],
    [
      "ÐµÐ½Ð¸",
      "Ñı"
    ],
    [
      "Ð½",
      "Ð¾Ð²"
    ],
    [
      "Ð¶",
      "Ð¸Ð·"
    ],
    [
      "Ð¶Ð¸Ð·",
      "Ð½Ð¸"
    ],
    [
      "Ð¸ÑĤÑĮ",
      "ÑģÑı"
    ],
    [
      "Ð½Ð¸",
      "Ðº"
    ],
    [
      "Ð¿",
      "Ð¾Ð¼"
    ],
    [
      "ÐºÐ°",
      "Ðº"
    ],
    [
      "ÐŀÐ",
      "Ĵ"
    ],
    [
      "Ð",
      "¥"
    ],
    [
      "Ð¸Ð¼Ðµ",
      "Ñİ"
    ],
    [
      "ÐĴ",
      "Ðķ"
    ],
    [
      "Ð¿",
      "Ð¾Ð´"
    ],
    [
      "Ñĥ",
      "Ð¼Ð¸"
    ],
    [
      "Ð²",
      "ÑĢÐ°"
    ],
    [
      "Ð¾Ð²",
      "Ð°ÑĤÑĮ"
    ],
    [
      "Ñģ",
      "Ñĭ"
    ],
    [
      "Ð²",
      "Ð¾Ð¹"
    ],
    [
      "ÐµÐ»",
      "Ð¸"
    ],
    [
      "Ñį",
      "ÑĤÐ¾"
    ],
    [
      "Ð´",
      "ÐµÐ»"
    ],
    [
      "Ð»",
      "ÑĥÑĩÑĪÐµ"
    ],
    [
      "Ð´",
      "Ñĥ"
    ],
    [
      "Ð¿Ð¾",
      "ÑĤÐ¾Ð¼Ñĥ"
    ],
    [
      "Ð½",
      "ÐµÐ"
    ],
    [
      "Ð´",
      "Ð¸ÑĤÑģÑı"
    ],
    [
      "ÑģÑĤÐ°",
      "Ð²"
    ],
    [
      "Ð¿",
      "Ñĥ"
    ],
    [
      "ÑĪ",
      "ÑĮ"
    ],
    [
      "Ð»",
      "Ð¾"
    ],
    [
      "Ðļ",
      "ÐĲ"
    ],
    [
      "Ð",
      "¤"
    ],
    [
      "Ð",
      "¦"
    ],
    [
      "Ð²Ñģ",
      "ÐµÐ³"
    ],
    [
      "Ð²ÑģÐµÐ³",
      "Ð´Ð°"
    ],
    [
      "Ðŀ",
      "Ð½"
    ],
    [
      "Ð°",
      "Ð½"
    ],
    [
      "Ð·",
      "ÐµÐ¼"
    ],
    [
      "Ð¸Ð¼",
      "Ð¸"
    ],
    [
      "Ð´",
      "Ð¾Ð»"
    ],
    [
      "Ðķ",
      "ÑģÐ»Ð¸"
    ],
    [
      "Ð±",
      "Ð»Ð¸"
    ],
    [
      "Ð±Ð»Ð¸",
      "Ð¶"
    ],
    [
      "ÑĢ",
      "Ñı"
    ],
    [
      "Ð½Ð°",
      "Ð´"
    ],
    [
      "ÑĤ",
      "ÑĢ"
    ],
    [
      "ÐµÑģ",
      "Ð»Ð¸"
    ],
    [
      "Ð±ÑĥÐ´",
      "ÐµÑĤ"
    ],
    [
      "ÐµÑĤ",
      "ÑģÑı"
    ],
    [
      "Ð½Ñĭ",
      "Ð¼"
    ],
    [
      "Ð²",
      "Ð¾Ð·"
    ],
    [
      "ÐµÑģÑĤÐ²",
      "Ð°"
    ],
    [
      "ÑĩÐµÐ»Ð¾Ð²ÐµÐº",
      "Ð°"
    ],
    [
      "Ð¡",
      "Ðķ"
    ],
    [
      "ÐĽÐ®Ðĳ",
      "Ðĺ"
    ],
    [
      "Ð¢",
      "Ð¬"
    ],
    [
      "ÐĿ",
      "Ðĺ"
    ],
    [
      "Ð°",
      "Ðº"
    ],
    [
      "Ð¿",
      "ÐµÑĢ"
    ],
    [
      "Ð½",
      "ÐµÐ³Ð¾"
    ],
    [
      "ÐŀÐ",
      "¡"
    ],
    [
      "Ñİ",
      "Ð±"
    ],
    [
      "Ð»ÑİÐ±",
      "Ð¾Ð²ÑĮ"
    ],
    [
      "âĢ",
      "ľ"
    ],
    [
      "ÐĴ",
      "Ð¡"
    ],
    [
      "ÐļÐŀÐ",
      "Ļ"
    ],
    [
      "Ð",
      "©"
    ],
    [
      "âĢ",
      "Ŀ"
    ],
    [
      "Ðº",
      "Ð»"
    ],
    [
      "ÑĢÑĥ",
      "ÑĪ"
    ],
    [
      "ÑĢ",
      "Ð¾"
    ],
    [
      "ÑıÑĤÑĮ",
      "ÑģÑı"
    ],
    [
      "ÐºÐ°",
      "Ð¼"
    ],
    [
      "Ð½Ð¸",
      "Ð¼"
    ],
    [
      "Ð¸",
      "ÑģÐº"
    ],
    [
      "ÑĤÐµÑĢ",
      "ÑıÑĤÑĮ"
    ],
    [
      "Ñģ",
      "ÑĪÐ¸"
    ],
    [
      "Ð³",
      "Ð¾Ð²Ð¾ÑĢÐ¸ÑĤÑĮ"
    ],
    [
      "ÑĢ",
      "Ð¾Ð¼"
    ],
    [
      "Ð¾Ð³",
      "Ð°"
    ],
    [
      "Ð½Ðµ",
      "ÑĤ"
    ],
    [
      "Ð´ÐµÐ»",
      "Ð°"
    ],
    [
      "Ð±ÑĥÐ´",
      "ÑĮ"
    ],
    [
      "ÑĪ",
      "ÐµÐ½"
    ],
    [
      "ÑģÐµÑĢ",
      "Ð´"
    ],
    [
      "Ð³",
      "Ð»"
    ],
    [
      "Ðº",
      "Ð¾Ð¼"
    ],
    [
      "Ñĩ",
      "ÐµÐ¼"
    ],
    [
      "Ñı",
      "Ð¼"
    ],
    [
      "Ð¿ÑĢ",
      "Ð¾"
    ],
    [
      "Ð¸",
      "Ð¸"
    ],
    [
      "Ð¸",
      "Ð²"
    ],
    [
      "Ð¢ÐĲ",
      "Ðļ"
    ],
    [
      "ÑĢ",
      "ÐµÐ½"
    ],
    [
      "Ð¾Ð²",
      "ÐµÑĢ"
    ],
    [
      "Ð¿Ð¾",
      "ÑģÑĤ"
    ],
    [
      "Ð±",
      "Ð¾Ð»"
    ],
    [
      "Ð±Ð¾Ð»",
      "Ðµ"
    ],
    [
      "Ð±Ð¾Ð»Ðµ",
      "Ðµ"
    ],
    [
      "ÑģÐ¼",
      "ÐµÑĢ"
    ],
    [
      "ÑģÐ¼ÐµÑĢ",
      "ÑĤÐ¸"
    ],
    [
      "Ð´",
      "ÐµÐ¹"
    ],
    [
      "Ð¿ÑĢ",
      "ÐµÐ´"
    ],
    [
      "ÑģÑĤ",
      "ÑĮ"
    ],
    [
      "Ð²",
      "Ð»Ð°"
    ],
    [
      "Ñģ",
      "Ñĥ"
    ],
    [
      "Ð¿ÑĢ",
      "Ð¸"
    ],
    [
      "Ð°ÐµÑĤ",
      "ÑģÑı"
    ],
    [
      "ÐµÐ½",
      "ÑĮ"
    ],
    [
      "Ð¾ÑģÑĤ",
      "Ð¸"
    ],
    [
      "ÑĤ",
      "Ð¾Ð»ÑĮ"
    ],
    [
      "ÑĤÐ¾Ð»ÑĮ",
      "ÐºÐ¾"
    ],
    [
      "ÐºÐ¾ÑĤÐ¾ÑĢÑĭ",
      "Ð¹"
    ],
    [
      "Ð¼",
      "Ð¾Ð¶"
    ],
    [
      "Ð³Ð¾",
      "ÑĢ"
    ],
    [
      "Ð±",
      "ÐµÑģ"
    ],
    [
      "Ð¿",
      "Ð¾Ðº"
    ],
    [
      "Ð°",
      "Ñħ"
    ],
    [
      "Ð½Ð¾ÑģÑĤ",
      "Ð¸"
    ],
    [
      "Ð¸",
      "Ð½Ð°"
    ],
    [
      "ÑĩÐµÐ»Ð¾Ð²ÐµÐº",
      "Ð¾Ð¼"
    ],
    [
      "Ñģ",
      "ÑĢ"
    ],
    [
      "ÑģÑĢ",
      "ÐµÐ´"
    ],
    [
      "Ñĥ",
      "Ð¼"
    ],
    [
      "Ð¿",
      "Ð¾Ð³"
    ],
    [
      "Ðļ",
      "Ð¾Ð³Ð´Ð°"
    ],
    [
      "Ð¼ÑĥÐ¶",
      "Ðµ"
    ],
    [
      "Ð¼ÑĥÐ¶Ðµ",
      "ÑģÑĤÐ²Ð¾"
    ],
    [
      "Ð¾",
      "Ñĩ"
    ],
    [
      "Ð²",
      "Ð¾Ð´"
    ],
    [
      "Ð¾",
      "Ð½Ð¸"
    ],
    [
      "Ðµ",
      "Ñĳ"
    ],
    [
      "ÑĥÐµÑĤ",
      "ÑģÑı"
    ],
    [
      "ÐºÐ¾ÑĤÐ¾ÑĢÑĭ",
      "Ð¼"
    ],
    [
      "ÐŁ",
      "Ð¾"
    ],
    [
      "Ð²",
      "ÐµÑĢ"
    ],
    [
      "Ñĥ",
      "Ð¹"
    ],
    [
      "ÐĽÐ®Ðĳ",
      "ÐŀÐĴ"
    ],
    [
      "ÐĽÐ®ÐĳÐŀÐĴ",
      "Ð¬"
    ],
    [
      "Ð",
      "Ń"
    ],
    [
      "Ð¢",
      "Ðŀ"
    ],
    [
      "Ð¡Ðķ",
      "Ðĳ"
    ],
    [
      "Ð",
      "ĸ"
    ],
    [
      "ÐŀÐ",
      "Ķ"
    ],
    [
      "Ðľ",
      "ÐŀÐ"
    ],
    [
      "ÑģÑĤ",
      "Ð¸"
    ],
    [
      "Ð²Ñģ",
      "Ñĳ"
    ],
    [
      "Ð¼",
      "Ð¾"
    ],
    [
      "Ð·ÐµÐ¼",
      "Ð»"
    ],
    [
      "Ð·ÐµÐ¼Ð»",
      "Ðµ"
    ],
    [
      "ÐĴ",
      "ÐŀÐ"
    ],
    [
      "Ð¡",
      "Ð¢ÐŀÐ"
    ],
    [
      "Ð",
      "§"
    ],
    [
      "Ð",
      "ģ"
    ],
    [
      "ÐĿ",
      "Ðķ"
    ],
    [
      "ÐĴ",
      "ÐĲ"
    ],
    [
      "Ð±Ð»Ð¸Ð¶",
      "Ð½ÐµÐ³Ð¾"
    ],
    [
      "Ðľ",
      "Ðĺ"
    ],
    [
      "Ð»ÑİÐ±",
      "Ð²Ð¸"
    ],
    [
      "Ð¿ÐµÑĢ",
      "Ðµ"
    ],
    [
      "Ð¸Ð½",
      "Ñ"
    ],
    [
      "Ð¸Ð½Ñ",
      "Ħ"
    ],
    [
      "Ðł",
      "Ðķ"
    ],
    [
      "ÐĴÐ¡",
      "Ð¯"
    ],
    [
      "ÐĴÐ¡Ð¯",
      "ÐļÐŀÐĻ"
    ],
    [
      "Ð³",
      "Ð¸"
    ],
    [
      "ÐĴ",
      "Ñģ"
    ],
    [
      "Ð²",
      "ÑģÑı"
    ],
    [
      "Ðº",
      "Ð¾Ð¹"
    ],
    [
      "Ð²",
      "ÐµÑī"
    ],
    [
      "Ð´Ð°ÑĤÑĮ",
      "ÑģÑı"
    ],
    [
      "ÑĥÐ¼Ð¸",
      "ÑĢÐ°ÑĤÑĮ"
    ],
    [
      "ÑģÐ°",
      "Ð¶"
    ],
    [
      "Ð½Ð¾",
      "Ðµ"
    ],
    [
      "ÑĢÐ°Ð·",
      "ÑĢÑĥÑĪ"
    ],
    [
      "Ñģ",
      "ÐµÑĤ"
    ],
    [
      "ÑģÐµÑĤ",
      "Ð¾Ð²Ð°ÑĤÑĮ"
    ],
    [
      "Ñģ",
      "Ð°ÑĤÑĮ"
    ],
    [
      "ÐºÐ°Ð¼",
      "Ð½Ð¸"
    ],
    [
      "Ð½Ð¸Ð¼",
      "Ð°ÑĤÑĮ"
    ],
    [
      "Ñĥ",
      "ÐºÐ»"
    ],
    [
      "ÑĥÐºÐ»",
      "Ð¾Ð½"
    ],
    [
      "Ð±",
      "ÐµÑĢ"
    ],
    [
      "Ð±ÐµÑĢ",
      "ÐµÐ³"
    ],
    [
      "Ð¾Ð±",
      "ÐµÑī"
    ],
    [
      "Ð¾Ð±ÐµÑī",
      "Ð°ÑĤÑĮ"
    ],
    [
      "Ð¸",
      "ÑģÐ¿"
    ],
    [
      "Ð½Ð¸",
      "ÑĤÑĮ"
    ],
    [
      "Ðļ",
      "ÑĤÐ¾"
    ],
    [
      "Ð»ÑİÐ±",
      "Ð¸ÑĤ"
    ],
    [
      "ÑģÐµÑĢ",
      "ÐµÐ±"
    ],
    [
      "ÑĤÐ¾",
      "ÑĤ"
    ],
    [
      "Ðº",
      "ÑĤÐ¾"
    ],
    [
      "Ð¿",
      "Ð¾Ð»ÑĮ"
    ],
    [
      "Ð¿Ð¾Ð»ÑĮ",
      "Ð·Ñĭ"
    ],
    [
      "Ñģ",
      "ÑĥÐµÑĤ"
    ],
    [
      "ÑģÑĥÐµÑĤ",
      "Ð°"
    ],
    [
      "ÑĤÐµÑĢ",
      "Ð¿"
    ],
    [
      "Ð³",
      "Ð½Ðµ"
    ],
    [
      "Ð³Ð½Ðµ",
      "Ð²"
    ],
    [
      "Ð³",
      "Ð½ÐµÐ"
    ],
    [
      "Ð³Ð½ÐµÐ",
      "·"
    ],
    [
      "Ð³Ð½ÐµÐ·",
      "Ð´Ð¸ÑĤÑģÑı"
    ],
    [
      "ÑģÐµÑĢÐ´",
      "ÑĨ"
    ],
    [
      "Ð³Ð»",
      "ÑĥÐ¿"
    ],
    [
      "ÑģÐ»Ð¸",
      "ÑĪ"
    ],
    [
      "ÑģÐ»Ð¸ÑĪ",
      "ÐºÐ¾Ð¼"
    ],
    [
      "ÑģÑĤÐ°Ð²",
      "Ð»Ñı"
    ],
    [
      "Ð¼",
      "ÑĥÐ´"
    ],
    [
      "Ð³",
      "ÑĥÐ±"
    ],
    [
      "Ð´",
      "ÐµÑĤ"
    ],
    [
      "Ñĥ",
      "ÑģÑĤ"
    ],
    [
      "ÑĢ",
      "Ð¾Ð³Ð¾"
    ],
    [
      "Ð±",
      "Ð»Ð°"
    ],
    [
      "Ð±Ð»Ð°",
      "Ð³"
    ],
    [
      "Ñĥ",
      "ÑģÑĤÐ°"
    ],
    [
      "Ñı",
      "ÑĤ"
    ],
    [
      "Ð¶",
      "Ðµ"
    ],
    [
      "Ðŀ",
      "ÑĤ"
    ],
    [
      "Ñģ",
      "ÐºÐ°"
    ],
    [
      "ÑĤ",
      "Ð²Ð¾Ð¹"
    ],
    [
      "Ð¸",
      "Ñħ"
    ],
    [
      "Ð½Ð°",
      "Ð¹"
    ],
    [
      "Ð½Ð°Ð¹",
      "Ð´"
    ],
    [
      "Ñĳ",
      "ÑĪÑĮ"
    ],
    [
      "Ð°Ð»",
      "ÑĮ"
    ],
    [
      "ÑĤ",
      "ÐµÐ»"
    ],
    [
      "Ð¶",
      "Ð¸Ð²"
    ],
    [
      "Ð¶Ð¸Ð²",
      "ÑĳÑĤ"
    ],
    [
      "Ð",
      "Ĺ"
    ],
    [
      "ÐĲ",
      "ÐĽ"
    ],
    [
      "ÐļÐŀÐ",
      "Ŀ"
    ],
    [
      "Ð£",
      "Ñĩ"
    ],
    [
      "Ð£Ñĩ",
      "Ñĳ"
    ],
    [
      "Ð£ÑĩÑĳ",
      "Ð½ÑĭÐ¹"
    ],
    [
      "ÐµÐ½Ð¸",
      "Ð¸"
    ],
    [
      "Ð»Ð¸",
      "Ð²Ð¾"
    ],
    [
      "Ð¶",
      "Ð¸ÑĤ"
    ],
    [
      "ÐµÐ»ÑĮ",
      "Ð½Ð¾"
    ],
    [
      "ÑģÐ»Ð¾Ð²",
      "Ð°"
    ],
    [
      "Ð¸ÑģÐº",
      "ÑĢÐµÐ½"
    ],
    [
      "Ð²",
      "Ð½"
    ],
    [
      "Ð²Ð½",
      "Ñĥ"
    ],
    [
      "Ð¸",
      "Ðµ"
    ],
    [
      "Ð¿Ð¾ÑģÑĤ",
      "ÑĥÐ¿"
    ],
    [
      "Ð¿",
      "ÑĢÐ°"
    ],
    [
      "Ð»",
      "ÑĮ"
    ],
    [
      "Ð¸",
      "Ñī"
    ],
    [
      "Ð¸Ñī",
      "ÐµÑĤ"
    ],
    [
      "Ð´",
      "Ð»Ñı"
    ],
    [
      "Ð¿Ñĥ",
      "ÑĤÐ¸"
    ],
    [
      "Ñģ",
      "Ð¾Ð²ÐµÑĢ"
    ],
    [
      "ÑģÐ¾Ð²ÐµÑĢ",
      "ÑĪÐµÐ½"
    ],
    [
      "Ñģ",
      "ÑĩÐ¸ÑĤ"
    ],
    [
      "ÑģÑĩÐ¸ÑĤ",
      "Ð°ÐµÑĤ"
    ],
    [
      "ÑĨ",
      "ÐµÐ½"
    ],
    [
      "Ð½Ñĭ",
      "Ð¼Ð¸"
    ],
    [
      "Ñı",
      "ÑĪ"
    ],
    [
      "ÑıÑĪ",
      "Ð¼"
    ],
    [
      "Ð¿ÑĢÐµÐ´",
      "Ð°Ð½"
    ],
    [
      "Ð¿ÑĢÐµÐ´Ð°Ð½",
      "Ð½Ð¾ÑģÑĤÑĮ"
    ],
    [
      "Ð´",
      "ÐµÐ½Ð¸Ñı"
    ],
    [
      "ÑĩÐµÐ»Ð¾Ð²ÐµÑĩ",
      "Ð½Ð¾ÑģÑĤÑĮ"
    ],
    [
      "Ð´Ð¾Ð»",
      "Ð³"
    ],
    [
      "Ð´Ð°",
      "ÑĢ"
    ],
    [
      "Ð½",
      "ÐµÐ¼Ñĥ"
    ],
    [
      "ÑģÐ²Ð¾",
      "Ð¸"
    ],
    [
      "Ð½Ð¸",
      "Ñı"
    ],
    [
      "Ð¾",
      "ÑģÑĤÐ°"
    ],
    [
      "Ð¼",
      "Ð½Ð¾Ð³Ð¾"
    ],
    [
      "Ð±Ñĭ",
      "ÑĤÑĮ"
    ],
    [
      "Ñī",
      "ÐµÑģÑĤÐ²"
    ],
    [
      "Ð»Ñİ",
      "Ð´ÐµÐ¹"
    ],
    [
      "Ð½Ð°Ð´",
      "Ð¾"
    ],
    [
      "Ð°",
      "Ñı"
    ],
    [
      "ÑĥÑĩ",
      "Ð¸ÑĤÑĮÑģÑı"
    ],
    [
      "Ñģ",
      "Ð¿Ð¾"
    ],
    [
      "ÑģÐ¿Ð¾",
      "ÑģÐ¾Ð±"
    ],
    [
      "ÑģÐ¿Ð¾ÑģÐ¾Ð±",
      "Ð½ÑĭÐ¼"
    ],
    [
      "Ð·",
      "ÑĢ"
    ],
    [
      "Ð·ÑĢ",
      "ÐµÐ»"
    ],
    [
      "ÑĥÑĩ",
      "Ð¸ÑĤ"
    ],
    [
      "Ð½Ð¸Ðº",
      "ÑĤÐ¾"
    ],
    [
      "Ð¿Ð¾Ð¼",
      "Ð¸Ð½Ð°"
    ],
    [
      "Ðº",
      "Ð¾Ð³Ð´Ð°"
    ],
    [
      "Ð½",
      "ÑĥÐ¶"
    ],
    [
      "ÑģÐ°",
      "Ð¼"
    ],
    [
      "Ð½Ð¸",
      "Ð·"
    ],
    [
      "ÐµÐ´",
      "ÑĮ"
    ],
    [
      "ÑģÑĢÐµÐ´",
      "Ð¸"
    ],
    [
      "Ð½Ñĭ",
      "Ñħ"
    ],
    [
      "ÑĩÐ°",
      "ÑģÑĭ"
    ],
    [
      "ÑĤÐµÑĢ",
      "Ñı"
    ],
    [
      "Ð¸Ð¼",
      "ÐµÐ¹"
    ],
    [
      "Ð¿ÑĢ",
      "Ð¾Ð¹"
    ],
    [
      "Ð¿ÑĢÐ¾Ð¹",
      "ÑĤÐ¸"
    ],
    [
      "Ñĭ",
      "ÑģÐ»"
    ],
    [
      "ÑĤ",
      "Ñĭ"
    ],
    [
      "ÐºÐ°Ðº",
      "Ð¾Ð¹"
    ],
    [
      "ÐĿ",
      "Ð°"
    ],
    [
      "Ð±",
      "Ð¾Ð»ÑĮ"
    ],
    [
      "Ð±Ð¾Ð»ÑĮ",
      "ÑĪÐµ"
    ],
    [
      "Ð²Ð¸Ð´",
      "ÐµÐ»"
    ],
    [
      "Ð²Ð¾Ð´",
      "Ñĭ"
    ],
    [
      "Ð±Ñĭ",
      "Ð»Ð¸"
    ],
    [
      "Ð½Ð°",
      "Ñģ"
    ],
    [
      "Ð¾",
      "Ð½Ð°"
    ],
    [
      "ÐºÐ°",
      "Ð¼Ð¸"
    ],
    [
      "Ð¿Ð¾Ð³",
      "Ð¾Ð²Ð¾ÑĢÐ¸ÑĤÑĮ"
    ],
    [
      "Ð·Ð½Ð°",
      "ÑĩÐ¸ÑĤ"
    ],
    [
      "Ð¿Ð¾",
      "ÑĤÐµÑĢÑıÑĤÑĮ"
    ],
    [
      "ÐŁÐ¾",
      "ÑĩÐ¸ÑĤ"
    ],
    [
      "ÐŁÐ¾ÑĩÐ¸ÑĤ",
      "Ð°Ð¹"
    ],
    [
      "Ð³",
      "Ð»Ð°"
    ],
    [
      "Ð½ÐµÐ",
      "¿"
    ],
    [
      "ÑģÐµÐ±",
      "Ðµ"
    ],
    [
      "ÑĢÐ°",
      "Ð½Ð¸"
    ],
    [
      "ÑĤÐ²Ð¾",
      "Ð¸"
    ],
    [
      "Ð¿",
      "Ð¾Ð»"
    ],
    [
      "ÐĽÐ®",
      "ÐĶ"
    ],
    [
      "ÐĿ",
      "ÐĲ"
    ],
    [
      "Ð¡ÐķÐĳ",
      "Ð¯"
    ],
    [
      "Ðĸ",
      "ÐĺÐ"
    ],
    [
      "ÐĸÐĺÐ",
      "Ĺ"
    ],
    [
      "ÐĸÐĺÐĹ",
      "ÐĿÐĺ"
    ],
    [
      "Ð¸",
      "ÑģÑĤÐ¸"
    ],
    [
      "Ð´Ð¸",
      "Ð²Ð¸Ð´"
    ],
    [
      "Ðº",
      "Ð¾Ð´"
    ],
    [
      "ÐºÐ¾Ð´",
      "ÐµÐº"
    ],
    [
      "ÐºÐ¾Ð´ÐµÐº",
      "Ñģ"
    ],
    [
      "Ðļ",
      "Ð°Ðº"
    ],
    [
      "Ñģ",
      "Ð¸Ð¼"
    ],
    [
      "ÑģÐ¸Ð¼",
      "Ð²"
    ],
    [
      "ÑģÐ¸Ð¼Ð²",
      "Ð¾Ð»"
    ],
    [
      "Ð¸",
      "Ð»Ð¸"
    ],
    [
      "ÑĩÐµÐ»Ð¾Ð²ÐµÐº",
      "Ñĥ"
    ],
    [
      "ÑĤ",
      "Ð°Ð»"
    ],
    [
      "Ð¼",
      "Ð¾Ð³"
    ],
    [
      "Ð¼Ð¾Ð³",
      "Ñĥ"
    ],
    [
      "Ð²Ð°",
      "ÑİÑĤ"
    ],
    [
      "Ð¾Ð·",
      "Ð½Ð°"
    ],
    [
      "Ñģ",
      "Ð¾"
    ],
    [
      "ÑĢÐ°",
      "Ð´Ð°"
    ],
    [
      "ÑĢÐ°Ð´Ð°",
      "Ð½Ð¸"
    ],
    [
      "Ð²",
      "ÐµÐ½"
    ],
    [
      "Ð½Ð°Ð´",
      "ÐµÐ¶"
    ],
    [
      "ÑĢÐ°ÑĤÑĮ",
      "ÑģÑı"
    ],
    [
      "ÑģÑĤÐ²",
      "Ð°"
    ],
    [
      "Ð²Ñĭ",
      "ÑĪÐµ"
    ],
    [
      "ÐµÐ",
      "¿"
    ],
    [
      "ÑĤ",
      "Ð°Ðº"
    ],
    [
      "Ð»Ñİ",
      "Ð´Ð¸"
    ],
    [
      "Ðµ",
      "Ñħ"
    ],
    [
      "Ð½Ð¸",
      "Ñħ"
    ],
    [
      "Ð½Ð¾Ð²",
      "Ñĭ"
    ],
    [
      "Ð½Ð¾Ð²Ñĭ",
      "Ð¼"
    ],
    [
      "ÐĴÐķ",
      "Ðł"
    ],
    [
      "ÐŀÐ",
      "ĵ"
    ],
    [
      "ÐĽ",
      "ÐĲ"
    ],
    [
      "ÐŀÐĴ",
      "Ðķ"
    ],
    [
      "Ð¢Ð¬",
      "Ð®"
    ],
    [
      "Ð¢ÐŀÐ",
      "Ľ"
    ],
    [
      "Ð¢ÐŀÐĽ",
      "Ð¡Ð¢ÐŀÐ"
    ],
    [
      "Ð¢ÐŀÐĽÐ¡Ð¢ÐŀÐ",
      "Ļ"
    ],
    [
      "Ðģ",
      "Ð¢"
    ],
    [
      "Ð¡",
      "Ðľ"
    ],
    [
      "Ð",
      "Ļ"
    ],
    [
      "ÐĿ",
      "ÐĺÐ"
    ],
    [
      "Ð¿ÑĢÐ¾",
      "Ð¸Ð·"
    ],
    [
      "Ð¿ÑĢÐ¾Ð¸Ð·",
      "Ð½Ð¾Ñģ"
    ],
    [
      "Ð¿ÑĢÐ¾Ð¸Ð·Ð½Ð¾Ñģ",
      "Ð¸"
    ],
    [
      "Ð¸Ð¼",
      "ÐµÐ½Ð¸"
    ],
    [
      "Ðĵ",
      "Ð¾"
    ],
    [
      "ÐĵÐ¾",
      "ÑģÐ¿"
    ],
    [
      "Ð¿ÑĢ",
      "ÐµÐ»"
    ],
    [
      "Ð¿ÑĢÐµÐ»",
      "ÑİÐ±"
    ],
    [
      "Ð¿ÑĢÐµÐ»ÑİÐ±",
      "Ð¾Ð´"
    ],
    [
      "Ð¿ÑĢÐµÐ»ÑİÐ±Ð¾Ð´",
      "ÐµÐ¹"
    ],
    [
      "Ð¿ÑĢÐµÐ»ÑİÐ±Ð¾Ð´ÐµÐ¹",
      "ÑģÑĤÐ²"
    ],
    [
      "Ð¿ÑĢÐµÐ»ÑİÐ±Ð¾Ð´ÐµÐ¹ÑģÑĤÐ²",
      "ÑĥÐ¹"
    ],
    [
      "Ð¿",
      "Ð¾Ð¶"
    ],
    [
      "Ð¿Ð¾Ð¶",
      "ÐµÐ»"
    ],
    [
      "Ð¿Ð¾Ð¶ÐµÐ»",
      "Ð°Ð¹"
    ],
    [
      "ÐļÐĲ",
      "Ðļ"
    ],
    [
      "ÐŀÐ",
      "¢"
    ],
    [
      "Ð¢",
      "Ðķ"
    ],
    [
      "ÐŁ",
      "ÐŀÐ¡"
    ],
    [
      "ÐŁÐŀÐ¡",
      "Ð¢"
    ],
    [
      "ÐŁÐŀÐ¡Ð¢",
      "Ð£"
    ],
    [
      "ÐŁÐŀÐ¡Ð¢Ð£",
      "ÐŁ"
    ],
    [
      "Ðĵ",
      "Ðŀ"
    ],
    [
      "Ð½Ð¸",
      "Ðµ"
    ],
    [
      "Ð´Ð°",
      "Ð¼"
    ],
    [
      "Ð¼Ð¾",
      "Ñĳ"
    ],
    [
      "ÐĽ",
      "ÑİÐ±"
    ],
    [
      "ÐĽÑİÐ±",
      "Ð¾Ð²ÑĮ"
    ],
    [
      "Ð¿ÑĢ",
      "Ðµ"
    ],
    [
      "Ð¿ÑĢÐµ",
      "Ð²Ð¾Ð·"
    ],
    [
      "Ð¿ÑĢÐµÐ²Ð¾Ð·",
      "Ð½Ð¾Ñģ"
    ],
    [
      "Ð¿ÑĢÐµÐ²Ð¾Ð·Ð½Ð¾Ñģ",
      "Ð¸ÑĤÑģÑı"
    ],
    [
      "Ð±ÐµÑģ",
      "Ñĩ"
    ],
    [
      "Ð±ÐµÑģÑĩ",
      "Ð¸Ð½"
    ],
    [
      "Ð±ÐµÑģÑĩÐ¸Ð½",
      "ÑģÑĤÐ²ÑĥÐµÑĤ"
    ],
    [
      "ÑĢÐ°",
      "Ð´"
    ],
    [
      "ÑĢÐ°Ð´",
      "ÑĥÐµÑĤÑģÑı"
    ],
    [
      "ÐºÐ¾",
      "ÑĢ"
    ],
    [
      "ÐºÐ¾ÑĢ",
      "Ð¸Ð½ÑĦ"
    ],
    [
      "ÐºÐ¾ÑĢÐ¸Ð½ÑĦ",
      "Ñı"
    ],
    [
      "ÐĽÐ®ÐĳÐĺ",
      "Ð¢"
    ],
    [
      "ÐĴ",
      "ÐłÐķ"
    ],
    [
      "ÐĴÐłÐķ",
      "Ðľ"
    ],
    [
      "ÐĴÐłÐķÐľ",
      "Ð¯"
    ],
    [
      "ÐĴÐķ",
      "Ð©"
    ],
    [
      "ÐĴÐķÐ©",
      "Ðĺ"
    ],
    [
      "Ðĺ",
      "Ð·"
    ],
    [
      "Ðº",
      "Ð½Ð¸"
    ],
    [
      "ÐºÐ½Ð¸",
      "Ð³Ð¸"
    ],
    [
      "Ðķ",
      "Ðº"
    ],
    [
      "ÐķÐº",
      "ÐºÐ»"
    ],
    [
      "ÐķÐºÐºÐ»",
      "ÐµÑģ"
    ],
    [
      "ÐķÐºÐºÐ»ÐµÑģ",
      "Ð¸"
    ],
    [
      "ÐķÐºÐºÐ»ÐµÑģÐ¸",
      "Ð°"
    ],
    [
      "ÐķÐºÐºÐ»ÐµÑģÐ¸Ð°",
      "ÑģÑĤÐ°"
    ],
    [
      "ÐĴÑģ",
      "ÐµÐ¼Ñĥ"
    ],
    [
      "ÑģÐ²Ð¾",
      "Ðµ"
    ],
    [
      "Ð²ÑģÑı",
      "ÐºÐ¾Ð¹"
    ],
    [
      "Ð²ÐµÑī",
      "Ð¸"
    ],
    [
      "Ð½",
      "ÐµÐ±"
    ],
    [
      "Ð½ÐµÐ±",
      "Ð¾Ð¼"
    ],
    [
      "ÑĢ",
      "Ð¾Ð¶"
    ],
    [
      "ÑĢÐ¾Ð¶",
      "Ð´Ð°ÑĤÑĮÑģÑı"
    ],
    [
      "Ð½Ð°",
      "ÑģÐ°Ð¶"
    ],
    [
      "Ð½Ð°ÑģÐ°Ð¶",
      "Ð´Ð°ÑĤÑĮ"
    ],
    [
      "Ð²Ñĭ",
      "ÑĢÑĭ"
    ],
    [
      "Ð²ÑĭÑĢÑĭ",
      "Ð²Ð°ÑĤÑĮ"
    ],
    [
      "Ð¿Ð¾",
      "ÑģÐ°Ð¶"
    ],
    [
      "Ð¿Ð¾ÑģÐ°Ð¶",
      "ÐµÐ½"
    ],
    [
      "Ð¿Ð¾ÑģÐ°Ð¶ÐµÐ½",
      "Ð½Ð¾Ðµ"
    ],
    [
      "ÑĥÐ±",
      "Ð¸"
    ],
    [
      "ÑĥÐ±Ð¸",
      "Ð²Ð°ÑĤÑĮ"
    ],
    [
      "Ð²ÑĢÐ°",
      "Ñĩ"
    ],
    [
      "Ð²ÑĢÐ°Ñĩ",
      "Ðµ"
    ],
    [
      "Ð²ÑĢÐ°ÑĩÐµ",
      "Ð²Ð°ÑĤÑĮ"
    ],
    [
      "ÑĢÐ°Ð·ÑĢÑĥÑĪ",
      "Ð°ÑĤÑĮ"
    ],
    [
      "ÑģÑĤ",
      "ÑĢÐ¾"
    ],
    [
      "ÑģÑĤÑĢÐ¾",
      "Ð¸ÑĤÑĮ"
    ],
    [
      "Ð¿",
      "Ð»Ð°"
    ],
    [
      "Ð¿Ð»Ð°",
      "Ðº"
    ],
    [
      "Ð¿Ð»Ð°Ðº",
      "Ð°ÑĤÑĮ"
    ],
    [
      "ÑģÐ¼",
      "Ðµ"
    ],
    [
      "ÑģÐ¼Ðµ",
      "ÑıÑĤÑĮÑģÑı"
    ],
    [
      "Ð¿",
      "Ð»Ñı"
    ],
    [
      "Ð¿Ð»Ñı",
      "ÑģÐ°ÑĤÑĮ"
    ],
    [
      "ÑĢÐ°Ð·",
      "Ð±"
    ],
    [
      "ÑĢÐ°Ð·Ð±",
      "ÑĢÐ°"
    ],
    [
      "ÑĢÐ°Ð·Ð±ÑĢÐ°",
      "ÑģÑĭ"
    ],
    [
      "ÑĢÐ°Ð·Ð±ÑĢÐ°ÑģÑĭ",
      "Ð²Ð°ÑĤÑĮ"
    ],
    [
      "ÑģÐ¾Ð±",
      "Ð¸"
    ],
    [
      "ÑģÐ¾Ð±Ð¸",
      "ÑĢÐ°ÑĤÑĮ"
    ],
    [
      "Ð¾Ð±",
      "Ð½Ð¸Ð¼Ð°ÑĤÑĮ"
    ],
    [
      "ÑĥÐºÐ»Ð¾Ð½",
      "ÑıÑĤÑĮÑģÑı"
    ],
    [
      "Ð¾Ð±",
      "Ñ"
    ],
    [
      "Ð¾Ð±Ñ",
      "Ĭ"
    ],
    [
      "Ð¾Ð±ÑĬ",
      "Ñı"
    ],
    [
      "Ð¾Ð±ÑĬÑı",
      "ÑĤÐ¸"
    ],
    [
      "Ð¾Ð±ÑĬÑıÑĤÐ¸",
      "Ð¹"
    ],
    [
      "Ð¸ÑģÐº",
      "Ð°ÑĤÑĮ"
    ],
    [
      "Ñģ",
      "Ð±ÐµÑĢÐµÐ³"
    ],
    [
      "ÑģÐ±ÐµÑĢÐµÐ³",
      "Ð°ÑĤÑĮ"
    ],
    [
      "Ð±",
      "ÑĢÐ¾"
    ],
    [
      "Ð±ÑĢÐ¾",
      "ÑģÐ°ÑĤÑĮ"
    ],
    [
      "ÑĢÐ°Ð·",
      "Ð´Ð¸"
    ],
    [
      "ÑĢÐ°Ð·Ð´Ð¸",
      "ÑĢÐ°ÑĤÑĮ"
    ],
    [
      "ÑģÑĪÐ¸",
      "Ð²Ð°ÑĤÑĮ"
    ],
    [
      "Ð¼",
      "Ð¾Ð»"
    ],
    [
      "Ð¼Ð¾Ð»",
      "Ñĩ"
    ],
    [
      "Ð¼Ð¾Ð»Ñĩ",
      "Ð°ÑĤÑĮ"
    ],
    [
      "Ð»ÑİÐ±",
      "Ð¸ÑĤÑĮ"
    ],
    [
      "Ð½Ðµ",
      "Ð½Ð°"
    ],
    [
      "Ð½ÐµÐ½Ð°",
      "Ð²Ð¸Ð´"
    ],
    [
      "Ð½ÐµÐ½Ð°Ð²Ð¸Ð´",
      "Ðµ"
    ],
    [
      "Ð½ÐµÐ½Ð°Ð²Ð¸Ð´Ðµ",
      "ÑĤÑĮ"
    ],
    [
      "Ð²Ð¾Ð¹",
      "Ð½Ðµ"
    ],
    [
      "Ð¼Ð¸",
      "ÑĢÑĥ"
    ],
    [
      "ÐĽ",
      "ÑĥÑĩÑĪÐµ"
    ],
    [
      "Ð½",
      "ÐµÐ¶"
    ],
    [
      "Ð½ÐµÐ¶",
      "ÐµÐ»Ð¸"
    ],
    [
      "Ð¸ÑģÐ¿",
      "Ð¾Ð»"
    ],
    [
      "Ð¸ÑģÐ¿Ð¾Ð»",
      "Ð½Ð¸ÑĤÑĮ"
    ],
    [
      "ÑģÐµÑĢÐµÐ±",
      "ÑĢÐ¾"
    ],
    [
      "Ð½Ð°",
      "ÑģÑĭ"
    ],
    [
      "Ð½Ð°ÑģÑĭ",
      "ÑĤ"
    ],
    [
      "Ð½Ð°ÑģÑĭÑĤ",
      "Ð¸ÑĤÑģÑı"
    ],
    [
      "ÑģÐµÑĢÐµÐ±",
      "ÑĢÐ¾Ð¼"
    ],
    [
      "Ð±",
      "Ð¾Ð³Ð°"
    ],
    [
      "Ð±Ð¾Ð³Ð°",
      "ÑĤ"
    ],
    [
      "Ð±Ð¾Ð³Ð°ÑĤ",
      "ÑģÑĤÐ²Ð¾"
    ],
    [
      "Ðļ",
      "Ð¾"
    ],
    [
      "ÐļÐ¾",
      "Ð½Ðµ"
    ],
    [
      "ÐļÐ¾Ð½Ðµ",
      "ÑĨ"
    ],
    [
      "Ð½Ð°",
      "ÑĩÐ°"
    ],
    [
      "Ð½Ð°ÑĩÐ°",
      "Ð»Ð°"
    ],
    [
      "ÑĤÐµÑĢÐ¿",
      "ÐµÐ»Ð¸"
    ],
    [
      "ÑĤÐµÑĢÐ¿ÐµÐ»Ð¸",
      "Ð²Ñĭ"
    ],
    [
      "ÑĤÐµÑĢÐ¿ÐµÐ»Ð¸Ð²Ñĭ",
      "Ð¹"
    ],
    [
      "Ð²Ñĭ",
      "Ñģ"
    ],
    [
      "Ð²ÑĭÑģ",
      "Ð¾Ðº"
    ],
    [
      "Ð²ÑĭÑģÐ¾Ðº",
      "Ð¾Ð¼"
    ],
    [
      "Ð²ÑĭÑģÐ¾ÐºÐ¾Ð¼",
      "ÐµÑĢ"
    ],
    [
      "Ð²ÑĭÑģÐ¾ÐºÐ¾Ð¼ÐµÑĢ",
      "Ð½Ð¾Ð³Ð¾"
    ],
    [
      "Ð´Ñĥ",
      "Ñħ"
    ],
    [
      "Ð´ÑĥÑħ",
      "Ð¾Ð¼"
    ],
    [
      "ÑĤÐ²Ð¾",
      "Ð¸Ð¼"
    ],
    [
      "Ð¿Ð¾",
      "ÑģÐ¿"
    ],
    [
      "Ð¿Ð¾ÑģÐ¿",
      "Ðµ"
    ],
    [
      "Ð¿Ð¾ÑģÐ¿Ðµ",
      "ÑĪÐµÐ½"
    ],
    [
      "ÑģÐµÑĢÐ´ÑĨ",
      "Ðµ"
    ],
    [
      "Ð³Ð»ÑĥÐ¿",
      "Ñĭ"
    ],
    [
      "Ð³Ð»ÑĥÐ¿Ñĭ",
      "Ñħ"
    ],
    [
      "ÑģÑĤ",
      "ÑĢ"
    ],
    [
      "ÑģÑĤÑĢ",
      "Ð¾Ð³"
    ],
    [
      "Ð²Ñĭ",
      "ÑģÑĤÐ°Ð²Ð»Ñı"
    ],
    [
      "Ð²ÑĭÑģÑĤÐ°Ð²Ð»Ñı",
      "Ð¹"
    ],
    [
      "Ð¼ÑĥÐ´",
      "ÑĢÑĭ"
    ],
    [
      "Ð¼ÑĥÐ´ÑĢÑĭ",
      "Ð¼"
    ],
    [
      "Ð·Ð°",
      "ÑĩÐµÐ¼"
    ],
    [
      "Ð³ÑĥÐ±",
      "Ð¸ÑĤÑĮ"
    ],
    [
      "Ðº",
      "Ð¾Ð¿"
    ],
    [
      "ÐºÐ¾Ð¿",
      "Ð°ÐµÑĤ"
    ],
    [
      "ÑıÐ¼",
      "Ñĥ"
    ],
    [
      "ÑĥÐ¿",
      "Ð°"
    ],
    [
      "ÑĥÐ¿Ð°",
      "Ð´ÐµÑĤ"
    ],
    [
      "Ð½Ðµ",
      "Ðµ"
    ],
    [
      "ÑĢÐ°Ð·ÑĢÑĥÑĪ",
      "Ð°ÐµÑĤ"
    ],
    [
      "Ð¾Ð³",
      "ÑĢÐ°"
    ],
    [
      "Ð¾Ð³ÑĢÐ°",
      "Ð´Ñĥ"
    ],
    [
      "ÑĥÐ¶",
      "Ð°Ð»"
    ],
    [
      "ÑĥÐ¶Ð°Ð»",
      "Ð¸ÑĤ"
    ],
    [
      "Ð·",
      "Ð¼"
    ],
    [
      "Ð·Ð¼",
      "ÐµÐ¹"
    ],
    [
      "Ð¡",
      "Ð»"
    ],
    [
      "Ð¡Ð»",
      "Ð¾Ð²"
    ],
    [
      "Ð¡Ð»Ð¾Ð²",
      "Ð°"
    ],
    [
      "Ð¼ÑĥÐ´",
      "ÑĢÐ¾Ð³Ð¾"
    ],
    [
      "Ð±Ð»Ð°Ð³",
      "Ð¾Ð´"
    ],
    [
      "Ð±Ð»Ð°Ð³Ð¾Ð´",
      "Ð°ÑĤÑĮ"
    ],
    [
      "ÑĥÑģÑĤÐ°",
      "Ñħ"
    ],
    [
      "Ð³Ð»ÑĥÐ¿",
      "Ð¾Ð³Ð¾"
    ],
    [
      "Ð³ÑĥÐ±",
      "ÑıÑĤ"
    ],
    [
      "ÐŀÑĤ",
      "Ð¿Ñĥ"
    ],
    [
      "ÐŀÑĤÐ¿Ñĥ",
      "ÑģÐºÐ°"
    ],
    [
      "ÐŀÑĤÐ¿ÑĥÑģÐºÐ°",
      "Ð¹"
    ],
    [
      "Ñħ",
      "Ð»"
    ],
    [
      "ÑħÐ»",
      "ÐµÐ±"
    ],
    [
      "Ð²",
      "Ð¾Ð´Ð°"
    ],
    [
      "Ð²Ð¾Ð´Ð°",
      "Ð¼"
    ],
    [
      "Ð¿ÑĢÐ¾",
      "ÑĪÐµ"
    ],
    [
      "Ð¿ÑĢÐ¾ÑĪÐµ",
      "ÑģÑĤÐ²"
    ],
    [
      "Ð¿ÑĢÐ¾ÑĪÐµÑģÑĤÐ²",
      "Ð¸Ð¸"
    ],
    [
      "Ð¼",
      "Ð½"
    ],
    [
      "Ð¼Ð½",
      "Ð¾Ð³"
    ],
    [
      "Ð¼Ð½Ð¾Ð³",
      "Ð¸Ñħ"
    ],
    [
      "Ð´",
      "Ð½"
    ],
    [
      "Ð´Ð½",
      "ÐµÐ¹"
    ],
    [
      "Ð¾Ð¿",
      "ÑıÑĤÑĮ"
    ],
    [
      "Ð½Ð°Ð¹Ð´",
      "ÑĳÑĪÑĮ"
    ],
    [
      "Ñĥ",
      "Ð´Ð°"
    ],
    [
      "ÑĥÐ´Ð°",
      "Ð»Ñı"
    ],
    [
      "ÑĥÐ´Ð°Ð»Ñı",
      "Ð¹"
    ],
    [
      "Ð¿",
      "ÐµÑĩ"
    ],
    [
      "Ð¿ÐµÑĩ",
      "Ð°Ð»ÑĮ"
    ],
    [
      "ÑģÐµÑĢÐ´ÑĨ",
      "Ð°"
    ],
    [
      "ÑĥÐºÐ»Ð¾Ð½",
      "Ñı"
    ],
    [
      "ÑĥÐºÐ»Ð¾Ð½Ñı",
      "Ð¹"
    ],
    [
      "Ð·",
      "Ð»Ð¾"
    ],
    [
      "Ð·Ð»Ð¾",
      "Ðµ"
    ],
    [
      "ÑĤÐµÐ»",
      "Ð°"
    ],
    [
      "Ð´ÐµÑĤ",
      "ÑģÑĤÐ²Ð¾"
    ],
    [
      "Ñİ",
      "Ð½Ð¾ÑģÑĤÑĮ"
    ],
    [
      "Ð¶",
      "Ð°Ð»"
    ],
    [
      "Ð¶Ð°Ð»",
      "Ð¾Ð²Ð°ÑĤÑĮ"
    ],
    [
      "Ð¶Ð°Ð»Ð¾Ð²Ð°ÑĤÑĮ",
      "ÑģÑı"
    ],
    [
      "Ð¡",
      "ÐļÐĲ"
    ],
    [
      "Ð¡ÐļÐĲ",
      "ÐĹ"
    ],
    [
      "Ð¡ÐļÐĲÐĹ",
      "ÐĲÐĽ"
    ],
    [
      "ÐļÐŀÐĿ",
      "Ð¤"
    ],
    [
      "ÐļÐŀÐĿÐ¤",
      "Ð£"
    ],
    [
      "ÐļÐŀÐĿÐ¤Ð£",
      "Ð¦"
    ],
    [
      "ÐļÐŀÐĿÐ¤Ð£Ð¦",
      "ÐĺÐ"
    ],
    [
      "ÐļÐŀÐĿÐ¤Ð£Ð¦ÐĺÐ",
      "Ļ"
    ],
    [
      "Ð¼",
      "Ñı"
    ],
    [
      "Ð¼Ñı",
      "Ð³"
    ],
    [
      "Ð¼ÑıÐ³",
      "Ð¾Ðº"
    ],
    [
      "Ð¾Ð±",
      "ÑĢÐ°"
    ],
    [
      "Ð¾Ð±ÑĢÐ°",
      "Ñī"
    ],
    [
      "Ð¾Ð±ÑĢÐ°Ñī",
      "ÐµÐ½Ð¸Ð¸"
    ],
    [
      "Ð²",
      "ÐµÐ¶"
    ],
    [
      "Ð²ÐµÐ¶",
      "Ð»Ð¸Ð²Ð¾"
    ],
    [
      "Ð²",
      "ÑģÑĤÐ°"
    ],
    [
      "Ð²ÑģÑĤÐ°",
      "ÐµÑĤ"
    ],
    [
      "Ñĥ",
      "Ð²Ð°"
    ],
    [
      "ÑĥÐ²Ð°",
      "Ð¶Ð¸ÑĤ"
    ],
    [
      "ÑĥÐ²Ð°Ð¶Ð¸ÑĤ",
      "ÐµÐ»ÑĮÐ½Ð¾"
    ],
    [
      "ÑģÐ°",
      "Ð´Ð¸ÑĤÑģÑı"
    ],
    [
      "Ðķ",
      "Ð³Ð¾"
    ],
    [
      "Ð¸ÑģÐºÑĢÐµÐ½",
      "Ð½Ð¸"
    ],
    [
      "Ð²Ð½Ñĥ",
      "ÑĪ"
    ],
    [
      "Ð²Ð½ÑĥÑĪ",
      "Ð°"
    ],
    [
      "Ð²Ð½ÑĥÑĪÐ°",
      "ÑİÑĤ"
    ],
    [
      "Ð´",
      "Ð¾Ð²ÐµÑĢ"
    ],
    [
      "Ð´Ð¾Ð²ÐµÑĢ",
      "Ð¸Ðµ"
    ],
    [
      "Ð¿Ð¾ÑģÑĤÑĥÐ¿",
      "Ðº"
    ],
    [
      "Ð¿Ð¾ÑģÑĤÑĥÐ¿Ðº",
      "Ð¸"
    ],
    [
      "Ð¿ÑĢÐ°",
      "Ð²Ð¸"
    ],
    [
      "Ð¿ÑĢÐ°Ð²Ð¸",
      "Ð»ÑĮ"
    ],
    [
      "Ð¿ÑĢÐ°Ð²Ð¸Ð»ÑĮ",
      "Ð½Ñĭ"
    ],
    [
      "Ð´",
      "Ð¾ÑĢ"
    ],
    [
      "Ð´Ð¾ÑĢ",
      "Ð¾Ð³"
    ],
    [
      "Ð´Ð¾ÑĢÐ¾Ð³",
      "Ðµ"
    ],
    [
      "ÑĥÐ´",
      "Ð¾Ð±"
    ],
    [
      "ÑĥÐ´Ð¾Ð±",
      "Ð½Ð¾Ð³Ð¾"
    ],
    [
      "ÑĤÐ¾",
      "ÑĢ"
    ],
    [
      "ÑĤÐ¾ÑĢ",
      "Ð¾Ð¿"
    ],
    [
      "ÑĤÐ¾ÑĢÐ¾Ð¿",
      "Ð¸ÑĤÑģÑı"
    ],
    [
      "Ð¾Ð¶",
      "Ð¸"
    ],
    [
      "Ð¾Ð¶Ð¸",
      "Ð´Ð°"
    ],
    [
      "Ð¾Ð¶Ð¸Ð´Ð°",
      "Ñı"
    ],
    [
      "Ð´",
      "Ð¾ÑģÑĤ"
    ],
    [
      "Ð´Ð¾ÑģÑĤ",
      "Ð¾Ð¹"
    ],
    [
      "Ð´Ð¾ÑģÑĤÐ¾Ð¹",
      "Ð½"
    ],
    [
      "Ð´Ð¾ÑģÑĤÐ¾Ð¹Ð½",
      "Ð¾Ð¹"
    ],
    [
      "ÑģÐ¾Ð²ÐµÑĢÑĪÐµÐ½",
      "ÑģÑĤÐ²ÑĥÐµÑĤ"
    ],
    [
      "Ð´ÐµÐ¹",
      "ÑģÑĤÐ²"
    ],
    [
      "Ð´ÐµÐ¹ÑģÑĤÐ²",
      "Ð¾Ð²Ð°ÑĤÑĮ"
    ],
    [
      "ÑĨÐµÐ½",
      "Ð½ÑĭÐ¼Ð¸"
    ],
    [
      "Ð·",
      "Ð¾Ð»"
    ],
    [
      "Ð·Ð¾Ð»",
      "Ð¾"
    ],
    [
      "Ð·Ð¾Ð»Ð¾",
      "ÑĤÐ¾"
    ],
    [
      "ÑıÑĪÐ¼",
      "Ñĥ"
    ],
    [
      "ÑĨ",
      "ÐµÐ½Ð¸"
    ],
    [
      "ÑĨÐµÐ½Ð¸",
      "ÑĤ"
    ],
    [
      "Ð¿",
      "ÑĢÐ°Ð²"
    ],
    [
      "Ð¿ÑĢÐ°Ð²",
      "Ð´Ð¸"
    ],
    [
      "Ð¿ÑĢÐ°Ð²Ð´Ð¸",
      "Ð²Ð¾"
    ],
    [
      "Ð¿ÑĢÐ°Ð²Ð´Ð¸Ð²Ð¾",
      "ÑģÑĤÑĮ"
    ],
    [
      "ÑģÑĤ",
      "ÑĢÐµÐ¼"
    ],
    [
      "ÑģÑĤÑĢÐµÐ¼",
      "Ð¸ÑĤÑģÑı"
    ],
    [
      "Ð·Ð°",
      "Ð²Ð»Ð°"
    ],
    [
      "Ð·Ð°Ð²Ð»Ð°",
      "Ð´Ðµ"
    ],
    [
      "Ð·Ð°Ð²Ð»Ð°Ð´Ðµ",
      "ÑĤÑĮ"
    ],
    [
      "Ð·ÐµÐ¼",
      "Ð»Ñı"
    ],
    [
      "Ð·ÐµÐ¼Ð»Ñı",
      "Ð¼Ð¸"
    ],
    [
      "ÑģÐ²Ð¾",
      "Ð¸Ð¼Ð¸"
    ],
    [
      "Ð²Ð»Ð°",
      "Ð´ÐµÐ½Ð¸Ñı"
    ],
    [
      "Ð²Ð»Ð°Ð´ÐµÐ½Ð¸Ñı",
      "Ð¼Ð¸"
    ],
    [
      "Ð´Ñĥ",
      "Ð¼"
    ],
    [
      "Ð´ÑĥÐ¼",
      "Ð°ÐµÑĤ"
    ],
    [
      "Ð¿ÑĢ",
      "ÐµÐ¶"
    ],
    [
      "Ð¿ÑĢÐµÐ¶",
      "Ð´Ðµ"
    ],
    [
      "ÑĢÐ°",
      "Ð±"
    ],
    [
      "ÑĢÐ°Ð±",
      "Ð¾ÑĤ"
    ],
    [
      "ÑĢÐ°Ð±Ð¾ÑĤ",
      "Ðµ"
    ],
    [
      "Ð¿Ð¾",
      "ÑĤÐ¾Ð¼"
    ],
    [
      "Ð½Ð°",
      "Ð³"
    ],
    [
      "Ð½Ð°Ð³",
      "ÑĢÐ°"
    ],
    [
      "Ð½Ð°Ð³ÑĢÐ°",
      "Ð´Ðµ"
    ],
    [
      "Ð³Ð¾",
      "ÑģÑĥ"
    ],
    [
      "Ð³Ð¾ÑģÑĥ",
      "Ð´Ð°ÑĢ"
    ],
    [
      "Ð³Ð¾ÑģÑĥÐ´Ð°ÑĢ",
      "ÑĮ"
    ],
    [
      "Ð¿Ð¾ÑģÑĤÑĥÐ¿",
      "Ð°ÐµÑĤ"
    ],
    [
      "Ð½Ðµ",
      "ÑģÐ¿"
    ],
    [
      "Ð½ÐµÑģÐ¿",
      "ÑĢÐ°Ð²"
    ],
    [
      "Ð½ÐµÑģÐ¿ÑĢÐ°Ð²",
      "ÐµÐ´"
    ],
    [
      "Ð½ÐµÑģÐ¿ÑĢÐ°Ð²ÐµÐ´",
      "Ð»Ð¸Ð²Ð¾"
    ],
    [
      "Ð¿ÑĢÐ¸",
      "Ð±Ð»Ð¸Ð¶"
    ],
    [
      "Ð¿ÑĢÐ¸Ð±Ð»Ð¸Ð¶",
      "Ð°ÐµÑĤÑģÑı"
    ],
    [
      "Ðł",
      "Ð°"
    ],
    [
      "ÐłÐ°",
      "ÑģÑĪÐ¸"
    ],
    [
      "ÐłÐ°ÑģÑĪÐ¸",
      "ÑĢÑı"
    ],
    [
      "ÐłÐ°ÑģÑĪÐ¸ÑĢÑı",
      "Ñı"
    ],
    [
      "Ð·Ð½Ð°",
      "Ð½Ð¸Ñı"
    ],
    [
      "Ð¾ÑģÑĤÐ°",
      "Ð½Ð°"
    ],
    [
      "Ð¾ÑģÑĤÐ°Ð½Ð°",
      "Ð²"
    ],
    [
      "Ð¾ÑģÑĤÐ°Ð½Ð°Ð²",
      "Ð»Ð¸"
    ],
    [
      "Ð¾ÑģÑĤÐ°Ð½Ð°Ð²Ð»Ð¸",
      "Ð²"
    ],
    [
      "Ð¾ÑģÑĤÐ°Ð½Ð°Ð²Ð»Ð¸Ð²",
      "Ð°ÐµÑĤÑģÑı"
    ],
    [
      "Ð¼",
      "Ð³"
    ],
    [
      "Ð¼Ð³",
      "Ð½Ð¾Ð²"
    ],
    [
      "Ð¼Ð³Ð½Ð¾Ð²",
      "ÐµÐ½ÑĮ"
    ],
    [
      "Ð¼Ð³Ð½Ð¾Ð²ÐµÐ½ÑĮ",
      "Ðµ"
    ],
    [
      "Ð·Ð½Ð°",
      "ÐµÑĤ"
    ],
    [
      "ÑĥÑģÑĤÐ°",
      "Ð»"
    ],
    [
      "ÑĥÑģÑĤÐ°Ð»",
      "Ð¾ÑģÑĤÐ¸"
    ],
    [
      "ÑģÐ»",
      "Ñĭ"
    ],
    [
      "ÑģÐ»Ñĭ",
      "ÑĪ"
    ],
    [
      "ÑģÐ»ÑĭÑĪ",
      "Ð°Ð»"
    ],
    [
      "ÑĥÑĩ",
      "Ð¸"
    ],
    [
      "ÑĥÑĩÐ¸",
      "Ð»"
    ],
    [
      "ÑĥÑĩÐ¸Ð»",
      "ÑģÑı"
    ],
    [
      "Ð¼Ð¾Ð¶",
      "ÐµÑĤ"
    ],
    [
      "ÑĨ",
      "ÐµÐ»"
    ],
    [
      "ÑĨÐµÐ»",
      "Ñĭ"
    ],
    [
      "ÑĨÐµÐ»Ñĭ",
      "Ð¹"
    ],
    [
      "Ð´",
      "ÐµÐ½ÑĮ"
    ],
    [
      "Ð¾Ð±",
      "ÑīÐµÑģÑĤÐ²"
    ],
    [
      "Ð¾Ð±ÑīÐµÑģÑĤÐ²",
      "Ðµ"
    ],
    [
      "Ð½Ð°Ð´Ð¾",
      "ÐµÐ´"
    ],
    [
      "Ð½Ð°Ð´Ð¾ÐµÐ´",
      "Ð°Ñı"
    ],
    [
      "Ðĳ",
      "Ð»Ð°"
    ],
    [
      "ÐĳÐ»Ð°",
      "Ð³Ð¾ÑĢ"
    ],
    [
      "ÐĳÐ»Ð°Ð³Ð¾ÑĢ",
      "Ð¾Ð´"
    ],
    [
      "ÐĳÐ»Ð°Ð³Ð¾ÑĢÐ¾Ð´",
      "Ð½ÑĭÐ¹"
    ],
    [
      "ÑģÐ²Ð¾",
      "ÐµÐ¹"
    ],
    [
      "Ð´Ð¾Ð»",
      "Ð¶"
    ],
    [
      "Ð´Ð¾Ð»Ð¶",
      "ÐµÐ½"
    ],
    [
      "Ð±ÐµÑģ",
      "Ð¿Ð¾Ðº"
    ],
    [
      "Ð±ÐµÑģÐ¿Ð¾Ðº",
      "Ð¾"
    ],
    [
      "Ð±ÐµÑģÐ¿Ð¾ÐºÐ¾",
      "Ð¸ÑĤÑĮÑģÑı"
    ],
    [
      "ÑĤÑĢ",
      "Ñĳ"
    ],
    [
      "ÑĤÑĢÑĳ",
      "Ñħ"
    ],
    [
      "Ð²ÐµÑī",
      "Ð°Ñħ"
    ],
    [
      "Ñİ",
      "Ð½Ð¾ÑģÑĤÐ¸"
    ],
    [
      "Ð¾Ðº",
      "Ð°"
    ],
    [
      "Ð¾ÐºÐ°",
      "Ð¶"
    ],
    [
      "Ð¾ÐºÐ°Ð¶",
      "ÐµÑĤÑģÑı"
    ],
    [
      "Ñĩ",
      "ÐµÐ¼Ñĥ"
    ],
    [
      "Ð·ÑĢÐµÐ»",
      "Ð¾Ð¼"
    ],
    [
      "Ð²Ð¾Ð·",
      "ÑĢÐ°"
    ],
    [
      "Ð²Ð¾Ð·ÑĢÐ°",
      "ÑģÑĤ"
    ],
    [
      "Ð²Ð¾Ð·ÑĢÐ°ÑģÑĤ",
      "Ðµ"
    ],
    [
      "Ð½Ð¸Ðº",
      "Ð¾Ð³Ð¾"
    ],
    [
      "Ð·ÑĢÐµÐ»",
      "Ð¾ÑģÑĤÐ¸"
    ],
    [
      "Ð²Ñģ",
      "Ð¿Ð¾Ð¼Ð¸Ð½Ð°"
    ],
    [
      "Ð²ÑģÐ¿Ð¾Ð¼Ð¸Ð½Ð°",
      "ÑĤÑĮ"
    ],
    [
      "Ð½",
      "Ñĳ"
    ],
    [
      "Ð½Ñĳ",
      "Ð¼"
    ],
    [
      "Ð¿Ð¾",
      "ÑģÐ»"
    ],
    [
      "Ð¿Ð¾ÑģÐ»",
      "Ðµ"
    ],
    [
      "Ð¿Ð¾Ð¼",
      "Ð¾Ð³"
    ],
    [
      "Ð¿Ð¾Ð¼Ð¾Ð³",
      "Ð°ÑĤÑĮ"
    ],
    [
      "Ð´",
      "ÑĢÑĥ"
    ],
    [
      "Ð´ÑĢÑĥ",
      "Ð³"
    ],
    [
      "Ð´ÑĢÑĥÐ³",
      "Ð¸Ð¼"
    ],
    [
      "Ð¿ÑĢÐ¸",
      "Ð´"
    ],
    [
      "Ð¿ÑĢÐ¸Ð´",
      "ÑĳÑĤ"
    ],
    [
      "Ð¿Ð¾Ð¼",
      "Ð¾"
    ],
    [
      "Ð¿Ð¾Ð¼Ð¾",
      "Ñī"
    ],
    [
      "Ð¿Ð¾Ð¼Ð¾Ñī",
      "ÑĮ"
    ],
    [
      "Ð½ÑĥÐ¶",
      "Ð´Ð°ÑĤÑĮÑģÑı"
    ],
    [
      "Ð²ÑĢÐ°",
      "Ð¶"
    ],
    [
      "Ð²ÑĢÐ°Ð¶",
      "Ð´Ñĥ"
    ],
    [
      "Ð²ÑĢÐ°Ð¶Ð´Ñĥ",
      "Ð¹"
    ],
    [
      "Ð½Ð¸Ð·",
      "Ðº"
    ],
    [
      "Ð½Ð¸Ð·Ðº",
      "Ð¸Ð¼"
    ],
    [
      "Ð²",
      "ÐµÐ´ÑĮ"
    ],
    [
      "Ð¸Ð¼Ðµ",
      "ÐµÑĤ"
    ],
    [
      "Ð²ÑĢÐ°",
      "Ð³"
    ],
    [
      "Ð²ÑĢÐ°Ð³",
      "Ð¾Ð²"
    ],
    [
      "Ð¿Ð¾Ð´",
      "Ð¾Ð±"
    ],
    [
      "Ð¿Ð¾Ð´Ð¾Ð±",
      "Ð½ÑĭÑħ"
    ],
    [
      "Ð±",
      "ÐµÐ"
    ],
    [
      "Ð±ÐµÐ",
      "·"
    ],
    [
      "Ð±ÐµÐ·",
      "Ð´"
    ],
    [
      "Ð±ÐµÐ·Ð´",
      "ÐµÐ»ÑĮ"
    ],
    [
      "Ð±ÐµÐ·Ð´ÐµÐ»ÑĮ",
      "Ñı"
    ],
    [
      "ÑĤ",
      "ÑĥÐ¿"
    ],
    [
      "ÑĤÑĥÐ¿",
      "Ðµ"
    ],
    [
      "ÑĤÑĥÐ¿Ðµ",
      "ÐµÑĤ"
    ],
    [
      "Ð¿Ð¾Ð³",
      "Ð»Ð¾"
    ],
    [
      "Ð¿Ð¾Ð³Ð»Ð¾",
      "Ñī"
    ],
    [
      "Ð¿Ð¾Ð³Ð»Ð¾Ñī",
      "ÐµÐ½Ð¸Ñı"
    ],
    [
      "Ð´ÐµÐ»Ð°",
      "Ð¼Ð¸"
    ],
    [
      "ÑĤÐµÑĢÑı",
      "ÐµÑĤÑģÑı"
    ],
    [
      "Ð¿Ð¾Ð´",
      "Ð½Ð¸Ð¼"
    ],
    [
      "Ð¿Ð¾Ð´Ð½Ð¸Ð¼",
      "Ð°"
    ],
    [
      "Ð¿Ð¾Ð´Ð½Ð¸Ð¼Ð°",
      "Ðµ"
    ],
    [
      "Ð¿Ð¾Ð´Ð½Ð¸Ð¼Ð°Ðµ",
      "ÑĪÑĮ"
    ],
    [
      "Ð¿Ð¾Ð´Ð½Ð¸Ð¼Ð°ÐµÑĪÑĮ",
      "ÑģÑı"
    ],
    [
      "Ð³Ð¾",
      "ÑĢÑĥ"
    ],
    [
      "Ñĥ",
      "Ð·"
    ],
    [
      "ÑĥÐ·",
      "ÐºÐ¾Ð¹"
    ],
    [
      "ÑĤÑĢ",
      "Ð¾Ð¿"
    ],
    [
      "ÑĤÑĢÐ¾Ð¿",
      "Ðµ"
    ],
    [
      "Ð¸",
      "Ð´"
    ],
    [
      "Ð¸Ð´",
      "ÑĳÑĪÑĮ"
    ],
    [
      "Ñģ",
      "Ð½"
    ],
    [
      "ÑģÐ½",
      "ÐµÐ³"
    ],
    [
      "ÑģÐ½ÐµÐ³",
      "Ñĥ"
    ],
    [
      "ÑģÐº",
      "Ð¾Ð»ÑĮ"
    ],
    [
      "ÑģÐºÐ¾Ð»ÑĮ",
      "Ð·"
    ],
    [
      "ÑģÐºÐ¾Ð»ÑĮÐ·",
      "ÐºÐ¾Ð¼"
    ],
    [
      "ÑģÐºÐ¾Ð»ÑĮÐ·ÐºÐ¾Ð¼",
      "Ñĥ"
    ],
    [
      "Ð¼",
      "Ð¾ÑģÑĤ"
    ],
    [
      "Ð¼Ð¾ÑģÑĤ",
      "Ñĥ"
    ],
    [
      "ÑģÐ»Ð¾Ð²",
      "Ðµ"
    ],
    [
      "Ð³Ð»",
      "ÑĥÐ±"
    ],
    [
      "Ð³Ð»ÑĥÐ±",
      "Ð¾Ñĩ"
    ],
    [
      "Ð³Ð»ÑĥÐ±Ð¾Ñĩ",
      "Ð°Ð¹"
    ],
    [
      "Ð³Ð»ÑĥÐ±Ð¾ÑĩÐ°Ð¹",
      "ÑĪÐ¸"
    ],
    [
      "Ð³Ð»ÑĥÐ±Ð¾ÑĩÐ°Ð¹ÑĪÐ¸",
      "Ð¹"
    ],
    [
      "ÑģÐ¼",
      "ÑĭÑģÐ»"
    ],
    [
      "Ð¾Ð¿",
      "Ð°"
    ],
    [
      "Ð¾Ð¿Ð°",
      "Ñģ"
    ],
    [
      "Ð¾Ð¿Ð°Ñģ",
      "Ð½ÑĭÑħ"
    ],
    [
      "Ð¿",
      "Ð¾Ð²Ð¾ÑĢ"
    ],
    [
      "Ð¿Ð¾Ð²Ð¾ÑĢ",
      "Ð¾ÑĤ"
    ],
    [
      "Ð¿Ð¾Ð²Ð¾ÑĢÐ¾ÑĤ",
      "Ð°Ñħ"
    ],
    [
      "Ñħ",
      "Ð²Ð°"
    ],
    [
      "ÑħÐ²Ð°",
      "ÑĤ"
    ],
    [
      "ÑħÐ²Ð°ÑĤ",
      "Ð°ÐµÑĤ"
    ],
    [
      "Ð¼ÑĥÐ¶",
      "ÐµÑģÑĤÐ²Ð°"
    ],
    [
      "Ð¾Ð±",
      "Ñı"
    ],
    [
      "Ð¾Ð±Ñı",
      "Ð·Ð°"
    ],
    [
      "Ð¾Ð±ÑıÐ·Ð°",
      "ÑĤ"
    ],
    [
      "Ð¾Ð±ÑıÐ·Ð°ÑĤ",
      "ÐµÐ»ÑĮÐ½Ð¾"
    ],
    [
      "Ð·Ð°",
      "ÑģÑĤ"
    ],
    [
      "Ð·Ð°ÑģÑĤ",
      "ÑĢÑı"
    ],
    [
      "Ð·Ð°ÑģÑĤÑĢÑı",
      "Ð½Ðµ"
    ],
    [
      "Ð·Ð°ÑģÑĤÑĢÑıÐ½Ðµ",
      "ÑĪÑĮ"
    ],
    [
      "Ð½Ð¸",
      "Ð±ÑĥÐ´ÑĮ"
    ],
    [
      "ÑıÐ¼",
      "Ðµ"
    ],
    [
      "ÐĿÐ°",
      "ÑĢ"
    ],
    [
      "ÐĿÐ°ÑĢ",
      "Ð¾Ð´"
    ],
    [
      "Ð½ÑĥÐ¶",
      "Ð´Ð°"
    ],
    [
      "Ð½ÑĥÐ¶Ð´Ð°",
      "ÐµÑĤÑģÑı"
    ],
    [
      "ÑĩÐµÐ»Ð¾Ð²ÐµÑĩ",
      "Ð½Ð¾ÑģÑĤÐ¸"
    ],
    [
      "Ð¾Ð³",
      "Ð½Ðµ"
    ],
    [
      "Ð²Ð¾Ð´",
      "Ðµ"
    ],
    [
      "ÑĥÐ¼Ð¸",
      "ÑĢÐ°"
    ],
    [
      "ÑĥÐ¼Ð¸ÑĢÐ°",
      "Ñİ"
    ],
    [
      "ÑĥÐ¼Ð¸ÑĢÐ°Ñİ",
      "Ñī"
    ],
    [
      "ÑĥÐ¼Ð¸ÑĢÐ°ÑİÑī",
      "Ð¸Ñħ"
    ],
    [
      "Ð¾Ð³",
      "Ð½"
    ],
    [
      "Ð¾Ð³Ð½",
      "Ñı"
    ],
    [
      "ÑĥÐ¼Ð¸",
      "ÑĢÐ°Ð²"
    ],
    [
      "ÑĥÐ¼Ð¸ÑĢÐ°Ð²",
      "ÑĪÐ¸"
    ],
    [
      "ÑĥÐ¼Ð¸ÑĢÐ°Ð²ÑĪÐ¸",
      "Ñħ"
    ],
    [
      "ÑĩÐµÐ»Ð¾Ð²ÐµÑĩ",
      "Ð½Ñĭ"
    ],
    [
      "ÐĶ",
      "Ð°Ð»"
    ],
    [
      "ÐĶÐ°Ð»",
      "ÐµÐº"
    ],
    [
      "ÐĶÐ°Ð»ÐµÐº",
      "Ð¾"
    ],
    [
      "Ð¼",
      "Ñĭ"
    ],
    [
      "Ñħ",
      "Ð¾ÑĤ"
    ],
    [
      "ÑħÐ¾ÑĤ",
      "Ð¸Ð¼"
    ],
    [
      "ÑĢÑĥ",
      "ÐºÐ°Ð¼Ð¸"
    ],
    [
      "ÑĤÑĢ",
      "ÐµÐ±"
    ],
    [
      "ÑĤÑĢÐµÐ±",
      "ÑĥÐµÑĤÑģÑı"
    ],
    [
      "Ð¿Ð¾",
      "Ð½"
    ],
    [
      "Ð¿Ð¾Ð½",
      "ÑıÑĤ"
    ],
    [
      "Ð¿Ð¾Ð½ÑıÑĤ",
      "Ð½Ñĭ"
    ],
    [
      "Ð¼Ð¾Ð¶",
      "Ð½Ð¾"
    ],
    [
      "Ð½",
      "ÐµÐ»ÑĮ"
    ],
    [
      "Ð½ÐµÐ»ÑĮ",
      "Ð·"
    ],
    [
      "Ð½ÐµÐ»ÑĮÐ·",
      "Ñı"
    ],
    [
      "Ð£",
      "Ð¼"
    ],
    [
      "Ð£Ð¼",
      "Ð½ÑĭÐ¹"
    ],
    [
      "ÑĤÐµÑĢÑı",
      "ÐµÑĤ"
    ],
    [
      "Ð³Ð»Ð°",
      "Ð²"
    ],
    [
      "Ð³Ð»Ð°Ð²",
      "Ð½Ð¾Ðµ"
    ],
    [
      "Ð¸ÑģÐºÑĢÐµÐ½",
      "Ð½Ð¾ÑģÑĤÑĮ"
    ],
    [
      "Ð´",
      "ÑĢ"
    ],
    [
      "Ð´ÑĢ",
      "ÑĥÐ¶"
    ],
    [
      "Ð´ÑĢÑĥÐ¶",
      "Ð¸"
    ],
    [
      "Ð½ÐµÐ¿",
      "Ð¾Ð´"
    ],
    [
      "Ð½ÐµÐ¿Ð¾Ð´",
      "Ð¾Ð±"
    ],
    [
      "Ð½ÐµÐ¿Ð¾Ð´Ð¾Ð±",
      "Ð½ÑĭÐ¼Ð¸"
    ],
    [
      "Ð¾",
      "ÑĪÐ¸"
    ],
    [
      "Ð¾ÑĪÐ¸",
      "Ð±"
    ],
    [
      "Ð¾ÑĪÐ¸Ð±",
      "ÑģÑı"
    ],
    [
      "Ð±",
      "Ð¾Ð¹"
    ],
    [
      "Ð±Ð¾Ð¹",
      "ÑģÑı"
    ],
    [
      "Ð¸ÑģÐ¿",
      "ÑĢÐ°Ð²"
    ],
    [
      "Ð¸ÑģÐ¿ÑĢÐ°Ð²",
      "Ð¸ÑĤÑĮÑģÑı"
    ],
    [
      "Ðĺ",
      "ÑģÐº"
    ],
    [
      "ÐĺÑģÐº",
      "ÑĢÐµÐ½"
    ],
    [
      "ÐĺÑģÐºÑĢÐµÐ½",
      "Ð½Ð¾"
    ],
    [
      "Ð²ÐµÑĢ",
      "ÑĥÐ¹"
    ],
    [
      "Ð»ÑİÐ±",
      "Ð¸"
    ],
    [
      "Ñħ",
      "ÑĢÐ°Ð½Ð¸"
    ],
    [
      "Ð´",
      "Ð¾"
    ],
    [
      "ÑĥÐ±",
      "ÐµÐ¶"
    ],
    [
      "ÑĥÐ±ÐµÐ¶",
      "Ð´ÐµÐ½Ð¸Ñı"
    ],
    [
      "Ñģ",
      "Ð´ÐµÐ»"
    ],
    [
      "ÑģÐ´ÐµÐ»",
      "Ð°Ð¹"
    ],
    [
      "ÑģÐ¾Ð²ÐµÑĢÑĪÐµÐ½",
      "Ð½ÑĭÐ¼"
    ],
    [
      "Ñģ",
      "Ð²Ð¾Ð¹"
    ],
    [
      "Ð¿Ñĥ",
      "ÑĤÑĮ"
    ],
    [
      "ÑıÑĪÐ¼",
      "Ð°"
    ],
    [
      "Ð¿Ð¾Ð»",
      "ÑĥÐ´"
    ],
    [
      "Ð¿Ð¾Ð»ÑĥÐ´",
      "ÑĢÐ°"
    ],
    [
      "Ð¿Ð¾Ð»ÑĥÐ´ÑĢÐ°",
      "Ð³Ð¾"
    ],
    [
      "Ð¿Ð¾Ð»ÑĥÐ´ÑĢÐ°Ð³Ð¾",
      "ÑĨÐµÐ½"
    ],
    [
      "Ð¿Ð¾Ð»ÑĥÐ´ÑĢÐ°Ð³Ð¾ÑĨÐµÐ½",
      "Ð½ÑĭÐ¹"
    ],
    [
      "ÐºÐ°Ð¼",
      "ÐµÐ½ÑĮ"
    ],
    [
      "ÐºÐ¾ÑĤÐ¾",
      "ÑĢÐ¾Ð³Ð¾"
    ],
    [
      "Ð´ÐµÐ»Ð°",
      "ÑİÑĤ"
    ],
    [
      "Ð²Ð°",
      "Ð·Ñĭ"
    ],
    [
      "ÑĩÐ°",
      "ÑĪÐ¸"
    ],
    [
      "Ð¼ÑĥÐ¶",
      "Ñĩ"
    ],
    [
      "Ð¼ÑĥÐ¶Ñĩ",
      "Ð¸Ð½Ð°"
    ],
    [
      "Ð·",
      "Ð´"
    ],
    [
      "Ð·Ð´",
      "ÐµÑģ"
    ],
    [
      "Ð·Ð´ÐµÑģ",
      "ÑĮ"
    ],
    [
      "ÐĽÐ®ÐĶ",
      "Ð¯"
    ],
    [
      "ÐĽÐ®ÐĶÐ¯",
      "Ðľ"
    ],
    [
      "ÐŃ",
      "Ð¢Ðŀ"
    ],
    [
      "Ð¡ÐķÐĳ",
      "Ðķ"
    ],
    [
      "ÐĿ",
      "Ð£"
    ],
    [
      "ÐĿÐ£",
      "Ðĸ"
    ],
    [
      "ÐĿÐ£Ðĸ",
      "ÐĿ"
    ],
    [
      "ÐĿÐ£ÐĸÐĿ",
      "Ðŀ"
    ],
    [
      "ÐŀÐĶ",
      "Ðĺ"
    ],
    [
      "ÐŀÐĶÐĺ",
      "ÐĿÐĲ"
    ],
    [
      "ÐŀÐĶÐĺÐĿÐĲ",
      "ÐļÐŀÐ"
    ],
    [
      "ÐŀÐĶÐĺÐĿÐĲÐļÐŀÐ",
      "Ĵ"
    ],
    [
      "ÐŀÐĶÐĺÐĿÐĲÐļÐŀÐĴ",
      "Ðŀ"
    ],
    [
      "ÐĽÐ®ÐĳÐĺ",
      "Ð¢Ð¬"
    ],
    [
      "ÐĶ",
      "Ðł"
    ],
    [
      "ÐĶÐł",
      "Ð£"
    ],
    [
      "ÐĶÐłÐ£",
      "Ðĵ"
    ],
    [
      "ÐĶÐłÐ£Ðĵ",
      "ÐĺÐ"
    ],
    [
      "ÐĶÐłÐ£ÐĵÐĺÐ",
      "¥"
    ],
    [
      "Ðľ",
      "Ðŀ"
    ],
    [
      "Ð¦",
      "ÐĹ"
    ],
    [
      "Ð¦ÐĹ",
      "Ð«"
    ],
    [
      "ÐľÐŀÐ",
      "¯"
    ],
    [
      "ÐļÐŀÐĿ",
      "Ð¦"
    ],
    [
      "ÐļÐŀÐĿÐ¦",
      "Ðķ"
    ],
    [
      "ÐļÐŀÐĿÐ¦Ðķ",
      "ÐŁ"
    ],
    [
      "ÐļÐŀÐĿÐ¦ÐķÐŁ",
      "Ð¦"
    ],
    [
      "ÐļÐŀÐĿÐ¦ÐķÐŁÐ¦",
      "Ðĺ"
    ],
    [
      "ÐļÐŀÐĿÐ¦ÐķÐŁÐ¦Ðĺ",
      "Ð¯"
    ],
    [
      "Ð¤",
      "Ð¾Ð»"
    ],
    [
      "Ð¤Ð¾Ð»",
      "Ðº"
    ],
    [
      "Ð¤Ð¾Ð»Ðº",
      "Ð½Ðµ"
    ],
    [
      "Ð¤Ð¾Ð»ÐºÐ½Ðµ",
      "ÑĢÑĥ"
    ],
    [
      "Ð¥",
      "ÑĢ"
    ],
    [
      "Ð¥ÑĢ",
      "Ð¸ÑģÑĤÐ¸"
    ],
    [
      "Ð¥ÑĢÐ¸ÑģÑĤÐ¸",
      "Ð°Ð½"
    ],
    [
      "Ð¥ÑĢÐ¸ÑģÑĤÐ¸Ð°Ð½",
      "ÑģÑĤÐ²Ð¾"
    ],
    [
      "Ðµ",
      "ÑģÑĤÑĮ"
    ],
    [
      "ÐºÐ°",
      "Ð¶"
    ],
    [
      "ÐºÐ°Ð¶",
      "Ð´"
    ],
    [
      "ÐºÐ°Ð¶Ð´",
      "Ð¾Ð¼"
    ],
    [
      "Ð·Ð°",
      "Ð²Ð¸"
    ],
    [
      "Ð·Ð°Ð²Ð¸",
      "Ñģ"
    ],
    [
      "Ð·Ð°Ð²Ð¸Ñģ",
      "Ð¸ÑĤ"
    ],
    [
      "ÐºÐ¾",
      "Ð½Ðµ"
    ],
    [
      "ÐºÐ¾Ð½Ðµ",
      "Ñĩ"
    ],
    [
      "ÐºÐ¾Ð½ÐµÑĩ",
      "Ð½Ð¾"
    ],
    [
      "Ð¿Ð¾",
      "Ð½Ð¸Ð¼Ð°ÑĤÑĮ"
    ],
    [
      "ÑģÐ»Ð¾Ð²",
      "Ð¾"
    ],
    [
      "ÐŃ",
      "ÑĤÐ¾"
    ],
    [
      "Ð¸Ð½",
      "Ð´Ð¸Ð²Ð¸Ð´"
    ],
    [
      "Ð¸Ð½Ð´Ð¸Ð²Ð¸Ð´",
      "Ñĥ"
    ],
    [
      "Ð¸Ð½Ð´Ð¸Ð²Ð¸Ð´Ñĥ",
      "Ð°Ð»ÑĮ"
    ],
    [
      "Ð¸Ð½Ð´Ð¸Ð²Ð¸Ð´ÑĥÐ°Ð»ÑĮ",
      "Ð½ÑĭÐ¹"
    ],
    [
      "Ð¿",
      "Ð¾Ð²"
    ],
    [
      "Ð¿Ð¾Ð²",
      "ÐµÐ´"
    ],
    [
      "Ð¿Ð¾Ð²ÐµÐ´",
      "ÐµÐ½Ð¸Ñı"
    ],
    [
      "Ð±Ð»Ð°Ð³",
      "Ð¾Ð´Ð°"
    ],
    [
      "Ð±Ð»Ð°Ð³Ð¾Ð´Ð°",
      "ÑĢÑı"
    ],
    [
      "ÐºÐ¾ÑĤÐ¾",
      "ÑĢÐ¾Ð¼"
    ],
    [
      "ÐºÐ¾ÑĤÐ¾ÑĢÐ¾Ð¼",
      "Ñĥ"
    ],
    [
      "ÑģÑĤÐ°",
      "Ð½Ð¾Ð²"
    ],
    [
      "ÑģÑĤÐ°Ð½Ð¾Ð²",
      "Ð¸ÑĤÑģÑı"
    ],
    [
      "Ñħ",
      "Ð¾Ñĩ"
    ],
    [
      "ÑħÐ¾Ñĩ",
      "ÐµÑĤ"
    ],
    [
      "Ð¿ÑĢÐ¸",
      "ÑĢ"
    ],
    [
      "Ð¿ÑĢÐ¸ÑĢ",
      "Ð¾Ð´Ð°"
    ],
    [
      "ÐļÐ°Ðº",
      "Ð¾Ð²"
    ],
    [
      "Ð±Ñĭ",
      "Ð»"
    ],
    [
      "Ðº",
      "ÑĢ"
    ],
    [
      "ÐºÑĢ",
      "Ðµ"
    ],
    [
      "ÐºÑĢÐµ",
      "ÑģÑĤ"
    ],
    [
      "Ð¿Ð¾Ð»",
      "ÑĥÐ¼"
    ],
    [
      "Ð¿Ð¾Ð»ÑĥÐ¼",
      "Ðµ"
    ],
    [
      "Ð¿Ð¾Ð»ÑĥÐ¼Ðµ",
      "ÑģÑı"
    ],
    [
      "Ð¿Ð¾Ð»ÑĥÐ¼ÐµÑģÑı",
      "ÑĨ"
    ],
    [
      "ÐµÑī",
      "Ñĳ"
    ],
    [
      "ÑįÑĤÐ¾",
      "ÑĤ"
    ],
    [
      "Ð½Ð°",
      "Ð¿Ð¾Ð¼Ð¸Ð½Ð°"
    ],
    [
      "Ð½Ð°Ð¿Ð¾Ð¼Ð¸Ð½Ð°",
      "ÐµÑĤ"
    ],
    [
      "Ð´Ð¾Ð»Ð³",
      "Ðµ"
    ],
    [
      "Ð¿ÐµÑĢ",
      "ÐµÐ´"
    ],
    [
      "ÑĩÐµÐ»Ð¾Ð²ÐµÑĩ",
      "ÐµÑģÑĤÐ²"
    ],
    [
      "ÑĩÐµÐ»Ð¾Ð²ÐµÑĩÐµÑģÑĤÐ²",
      "Ð¾Ð¼"
    ],
    [
      "Ðł",
      "ÐµÐ»Ð¸"
    ],
    [
      "ÐłÐµÐ»Ð¸",
      "Ð³Ð¸"
    ],
    [
      "ÐłÐµÐ»Ð¸Ð³Ð¸",
      "Ð¾Ð·"
    ],
    [
      "ÐłÐµÐ»Ð¸Ð³Ð¸Ð¾Ð·",
      "Ð½Ñĭ"
    ],
    [
      "ÐłÐµÐ»Ð¸Ð³Ð¸Ð¾Ð·Ð½Ñĭ",
      "Ðµ"
    ],
    [
      "Ð°Ð»",
      "Ð»"
    ],
    [
      "Ð°Ð»Ð»",
      "ÐµÐ³Ð¾"
    ],
    [
      "Ð°Ð»Ð»ÐµÐ³Ð¾",
      "ÑĢ"
    ],
    [
      "Ð°Ð»Ð»ÐµÐ³Ð¾ÑĢ",
      "Ð¸Ð¸"
    ],
    [
      "Ñį",
      "ÑĤÐ°Ð»"
    ],
    [
      "ÑįÑĤÐ°Ð»",
      "Ð¾Ð½"
    ],
    [
      "Ð¸Ð·",
      "Ð¼"
    ],
    [
      "Ð¸Ð·Ð¼",
      "ÐµÑĢ"
    ],
    [
      "Ð¸Ð·Ð¼ÐµÑĢ",
      "Ñı"
    ],
    [
      "Ð¸Ð·Ð¼ÐµÑĢÑı",
      "ÐµÑĤ"
    ],
    [
      "Ñĥ",
      "Ð·Ð½Ð°"
    ],
    [
      "ÑĥÐ·Ð½Ð°",
      "ÑĤÑĮ"
    ],
    [
      "ÑģÐ¾Ð±",
      "Ð¾Ð¹"
    ],
    [
      "Ð¿ÑĢÐµÐ´",
      "ÑģÑĤÐ°Ð²Ð»Ñı"
    ],
    [
      "Ð¿ÑĢÐµÐ´ÑģÑĤÐ°Ð²Ð»Ñı",
      "ÐµÑĤ"
    ],
    [
      "Ðŀ",
      "Ð½Ð¸"
    ],
    [
      "Ð¼Ð¾Ð³Ñĥ",
      "ÑĤ"
    ],
    [
      "Ð½Ð°",
      "ÑĥÑĩ"
    ],
    [
      "Ð½Ð°ÑĥÑĩ",
      "Ð¸ÑĤÑĮ"
    ],
    [
      "Ð´",
      "Ð¾Ð±"
    ],
    [
      "Ð´Ð¾Ð±",
      "ÑĢÑĥ"
    ],
    [
      "ÑĥÑĩ",
      "ÐµÐ±"
    ],
    [
      "ÑĥÑĩÐµÐ±",
      "Ð½Ð¸Ðº"
    ],
    [
      "Ð¼",
      "Ð°"
    ],
    [
      "Ð¼Ð°",
      "ÑĤ"
    ],
    [
      "Ð¼Ð°ÑĤ",
      "ÐµÐ¼"
    ],
    [
      "Ð¼Ð°ÑĤÐµÐ¼",
      "Ð°"
    ],
    [
      "Ð¼Ð°ÑĤÐµÐ¼Ð°",
      "ÑĤÐ¸"
    ],
    [
      "Ð¼Ð°ÑĤÐµÐ¼Ð°ÑĤÐ¸",
      "Ðº"
    ],
    [
      "Ð¼Ð°ÑĤÐµÐ¼Ð°ÑĤÐ¸Ðº",
      "Ðµ"
    ],
    [
      "ÐĿ",
      "Ð¾"
    ],
    [
      "Ñĥ",
      "ÐºÐ°"
    ],
    [
      "ÑĥÐºÐ°",
      "Ð·Ñĭ"
    ],
    [
      "ÑĥÐºÐ°Ð·Ñĭ",
      "Ð²Ð°ÑİÑĤ"
    ],
    [
      "ÑģÐ°Ð¼",
      "Ð¾Ð¿"
    ],
    [
      "ÑģÐ°Ð¼Ð¾Ð¿",
      "Ð¾Ð·Ð½Ð°"
    ],
    [
      "ÑģÐ°Ð¼Ð¾Ð¿Ð¾Ð·Ð½Ð°",
      "Ð½Ð¸Ñı"
    ],
    [
      "Ð¿Ð¾Ð¼",
      "Ð¾Ð³Ð°"
    ],
    [
      "Ð¿Ð¾Ð¼Ð¾Ð³Ð°",
      "ÑİÑĤ"
    ],
    [
      "Ñģ",
      "Ð¾Ð·"
    ],
    [
      "ÑģÐ¾Ð·",
      "Ð´Ð°ÑĤÑĮ"
    ],
    [
      "ÑģÐ¾Ð±",
      "ÑģÑĤÐ²"
    ],
    [
      "ÑģÐ¾Ð±ÑģÑĤÐ²",
      "ÐµÐ½"
    ],
    [
      "ÑģÐ¾Ð±ÑģÑĤÐ²ÐµÐ½",
      "Ð½ÑĭÐ¹"
    ],
    [
      "Ð¼Ð¾",
      "ÑĢÐ°"
    ],
    [
      "Ð¼Ð¾ÑĢÐ°",
      "Ð»ÑĮ"
    ],
    [
      "Ð¼Ð¾ÑĢÐ°Ð»ÑĮ",
      "Ð½ÑĭÐ¹"
    ],
    [
      "ÑģÐ¾",
      "Ð¾ÑĤ"
    ],
    [
      "ÑģÐ¾Ð¾ÑĤ",
      "Ð²"
    ],
    [
      "ÑģÐ¾Ð¾ÑĤÐ²",
      "ÐµÑĤ"
    ],
    [
      "ÑģÐ¾Ð¾ÑĤÐ²ÐµÑĤ",
      "ÑģÑĤÐ²ÑĥÐµÑĤ"
    ],
    [
      "Ð²Ð¾Ð·",
      "Ð¼Ð¾Ð¶"
    ],
    [
      "Ð²Ð¾Ð·Ð¼Ð¾Ð¶",
      "Ð½Ð¾ÑģÑĤ"
    ],
    [
      "Ð²Ð¾Ð·Ð¼Ð¾Ð¶Ð½Ð¾ÑģÑĤ",
      "ÑıÐ¼"
    ],
    [
      "ÑĥÑģÑĤ",
      "ÑĢÐµÐ¼"
    ],
    [
      "ÑĥÑģÑĤÑĢÐµÐ¼",
      "Ð»"
    ],
    [
      "ÑĥÑģÑĤÑĢÐµÐ¼Ð»",
      "ÐµÐ½Ð¸Ñı"
    ],
    [
      "ÑĥÑģÑĤÑĢÐµÐ¼Ð»ÐµÐ½Ð¸Ñı",
      "Ð¼"
    ],
    [
      "Ð½Ðµ",
      "ÑģÑĥ"
    ],
    [
      "Ð½ÐµÑģÑĥ",
      "ÑĤ"
    ],
    [
      "Ð¿ÑĢ",
      "Ð¸Ð¼"
    ],
    [
      "Ð¿ÑĢÐ¸Ð¼",
      "ÐµÑĢ"
    ],
    [
      "Ð½Ð°",
      "Ð¸"
    ],
    [
      "Ð½Ð°Ð¸",
      "Ð²Ñĭ"
    ],
    [
      "Ð½Ð°Ð¸Ð²Ñĭ",
      "ÑģÑĪÐ¸"
    ],
    [
      "Ð½Ð°Ð¸Ð²ÑĭÑģÑĪÐ¸",
      "Ñħ"
    ],
    [
      "ÑģÑĤ",
      "ÑĢÐ°Ð´Ð°Ð½Ð¸"
    ],
    [
      "ÑģÑĤÑĢÐ°Ð´Ð°Ð½Ð¸",
      "Ð¹"
    ],
    [
      "Ð¶",
      "ÐµÑĢ"
    ],
    [
      "Ð¶ÐµÑĢ",
      "ÑĤ"
    ],
    [
      "Ð¶ÐµÑĢÑĤ",
      "Ð²ÐµÐ½"
    ],
    [
      "Ð¶ÐµÑĢÑĤÐ²ÐµÐ½",
      "Ð½Ð¾ÑģÑĤÐ¸"
    ],
    [
      "Ð½Ð°Ð´ÐµÐ¶",
      "Ð´"
    ],
    [
      "Ð½Ð°Ð´ÐµÐ¶Ð´",
      "Ñĭ"
    ],
    [
      "Ð¾ÑĤ",
      "Ð½Ð¾Ñģ"
    ],
    [
      "Ð¾ÑĤÐ½Ð¾Ñģ",
      "Ð¸ÑĤÑĮÑģÑı"
    ],
    [
      "Ð¿",
      "Ð»"
    ],
    [
      "Ð¿Ð»",
      "Ñĭ"
    ],
    [
      "Ð¿Ð»Ñĭ",
      "ÑĤÑĮ"
    ],
    [
      "ÑĤ",
      "ÐµÑĩ"
    ],
    [
      "ÑĤÐµÑĩ",
      "ÐµÐ½Ð¸"
    ],
    [
      "ÑĤÐµÑĩÐµÐ½Ð¸",
      "Ñİ"
    ],
    [
      "Ð²Ñĭ",
      "Ñı"
    ],
    [
      "Ð²ÑĭÑı",
      "Ñģ"
    ],
    [
      "Ð²ÑĭÑıÑģ",
      "Ð½Ð¸ÑĤÑĮ"
    ],
    [
      "ÑĨ",
      "ÐµÐ»ÑĮ"
    ],
    [
      "Ð²Ñĭ",
      "Ð±"
    ],
    [
      "Ð²ÑĭÐ±",
      "ÑĢÐ°ÑĤÑĮÑģÑı"
    ],
    [
      "Ð½Ð°",
      "Ð±"
    ],
    [
      "Ð½Ð°Ð±",
      "Ð»Ñİ"
    ],
    [
      "Ð½Ð°Ð±Ð»Ñİ",
      "Ð´Ð°ÑĤÑĮ"
    ],
    [
      "ÐºÐ°",
      "ÑĤ"
    ],
    [
      "ÐºÐ°ÑĤ",
      "Ð¸ÑĤ"
    ],
    [
      "ÑģÐºÐ°",
      "Ð·"
    ],
    [
      "ÑģÐºÐ°Ð·",
      "Ð°Ð»"
    ],
    [
      "Ð²Ñģ",
      "ÐµÐ¼"
    ],
    [
      "Ð²ÑģÐµÐ¼",
      "Ð¸"
    ],
    [
      "ÑģÑĢÐµÐ´",
      "ÑģÑĤÐ²Ð°"
    ],
    [
      "ÑģÑĢÐµÐ´ÑģÑĤÐ²Ð°",
      "Ð¼Ð¸"
    ],
    [
      "Ð½Ðµ",
      "Ð¾Ð±"
    ],
    [
      "Ð½ÐµÐ¾Ð±",
      "Ñħ"
    ],
    [
      "Ð½ÐµÐ¾Ð±Ñħ",
      "Ð¾Ð´"
    ],
    [
      "Ð½ÐµÐ¾Ð±ÑħÐ¾Ð´",
      "Ð¸Ð¼"
    ],
    [
      "Ð½ÐµÐ¾Ð±ÑħÐ¾Ð´Ð¸Ð¼",
      "Ð¾"
    ],
    [
      "ÑģÑĤ",
      "Ð°ÑĤÑĮ"
    ],
    [
      "ÑĩÐ°",
      "ÑģÑĤÑĮ"
    ],
    [
      "ÑĩÐ°ÑģÑĤÑĮ",
      "Ñİ"
    ],
    [
      "ÐĿ",
      "Ð¸"
    ],
    [
      "ÐĿÐ¸",
      "ÐºÐ¾Ð³Ð´Ð°"
    ],
    [
      "Ð±",
      "Ð¾"
    ],
    [
      "Ð±Ð¾",
      "ÑıÑĤÑĮÑģÑı"
    ],
    [
      "Ð³",
      "ÑĢÑı"
    ],
    [
      "Ð³ÑĢÑı",
      "Ð·"
    ],
    [
      "Ð³ÑĢÑıÐ·",
      "Ð¸"
    ],
    [
      "Ð½Ð¸Ð·",
      "Ð¾ÑģÑĤÐ¸"
    ],
    [
      "ÑģÑĤÐ°",
      "ÑĢÐ°ÑĤÑĮÑģÑı"
    ],
    [
      "Ð¼ÑĥÐ¶",
      "ÐµÑģÑĤÐ²"
    ],
    [
      "Ð¼ÑĥÐ¶ÐµÑģÑĤÐ²",
      "ÐµÐ½"
    ],
    [
      "Ð¼ÑĥÐ¶ÐµÑģÑĤÐ²ÐµÐ½",
      "Ð½ÑĭÐ¼"
    ],
    [
      "Ñģ",
      "Ð¾ÑģÑĤ"
    ],
    [
      "ÑģÐ¾ÑģÑĤ",
      "ÑĢÐ°Ð´Ð°Ð½Ð¸"
    ],
    [
      "ÑģÐ¾ÑģÑĤÑĢÐ°Ð´Ð°Ð½Ð¸",
      "Ñİ"
    ],
    [
      "Ðľ",
      "Ð¾"
    ],
    [
      "ÐľÐ¾",
      "Ñı"
    ],
    [
      "ÐºÐ¾",
      "Ð½"
    ],
    [
      "ÐºÐ¾Ð½",
      "ÑĨ"
    ],
    [
      "ÐºÐ¾Ð½ÑĨ",
      "ÐµÐ¿"
    ],
    [
      "ÐºÐ¾Ð½ÑĨÐµÐ¿",
      "ÑĨ"
    ],
    [
      "ÐºÐ¾Ð½ÑĨÐµÐ¿ÑĨ",
      "Ð¸"
    ],
    [
      "ÐºÐ¾Ð½ÑĨÐµÐ¿ÑĨÐ¸",
      "Ñı"
    ],
    [
      "Ð¾Ð¿",
      "ÑĤ"
    ],
    [
      "Ð¾Ð¿ÑĤ",
      "Ð¸Ð¼Ð¸"
    ],
    [
      "Ð¾Ð¿ÑĤÐ¸Ð¼Ð¸",
      "ÑģÑĤÐ¸"
    ],
    [
      "Ð¾Ð¿ÑĤÐ¸Ð¼Ð¸ÑģÑĤÐ¸",
      "Ñĩ"
    ],
    [
      "Ð¾Ð¿ÑĤÐ¸Ð¼Ð¸ÑģÑĤÐ¸Ñĩ",
      "Ð½Ð°"
    ],
    [
      "Ð¾Ð¿ÑĤÐ¸Ð¼Ð¸ÑģÑĤÐ¸ÑĩÐ½Ð°",
      "Ñı"
    ],
    [
      "Ð¾ÑĤ",
      "Ð½Ð¾"
    ],
    [
      "Ð¾ÑĤÐ½Ð¾",
      "ÑĪ"
    ],
    [
      "Ð¾ÑĤÐ½Ð¾ÑĪ",
      "ÐµÐ½Ð¸Ð¸"
    ],
    [
      "ÑĩÐµÐ»Ð¾Ð²ÐµÑĩ",
      "ÐµÑģÑĤÐ²Ð°"
    ],
    [
      "Ðĺ",
      "Ð½"
    ],
    [
      "ÐĺÐ½",
      "Ð´Ð¸Ð²Ð¸Ð´"
    ],
    [
      "Ð½",
      "ÐµÐ´"
    ],
    [
      "Ð½ÐµÐ´",
      "Ð¾Ð»"
    ],
    [
      "Ð½ÐµÐ´Ð¾Ð»",
      "Ð³Ð¾"
    ],
    [
      "Ð¾ÑģÑĤÐ°",
      "ÑİÑĤ"
    ],
    [
      "Ð¾ÑģÑĤÐ°ÑİÑĤ",
      "ÑģÑı"
    ],
    [
      "Ð¼",
      "ÐµÑĩ"
    ],
    [
      "Ð¼ÐµÑĩ",
      "ÑĤÑĭ"
    ],
    [
      "Ð¿Ð¾",
      "Ñħ"
    ],
    [
      "Ð¿Ð¾Ñħ",
      "Ð¾Ð¶"
    ],
    [
      "Ð¿Ð¾ÑħÐ¾Ð¶",
      "Ð¸Ðµ"
    ],
    [
      "ÐĶ",
      "Ð¾"
    ],
    [
      "ÑĤ",
      "ÐµÑħ"
    ],
    [
      "Ð¿Ð¾",
      "ÑĢ"
    ],
    [
      "Ð¿Ð¾Ðº",
      "Ð°"
    ],
    [
      "ÑģÑĥ",
      "ÑīÐµÑģÑĤÐ²"
    ],
    [
      "ÑģÑĥÑīÐµÑģÑĤÐ²",
      "Ñĥ"
    ],
    [
      "ÑģÑĥÑīÐµÑģÑĤÐ²Ñĥ",
      "ÑİÑĤ"
    ],
    [
      "Ð½Ð°Ð¹Ð´",
      "ÑĳÑĤ"
    ],
    [
      "Ð½Ð°Ð¹Ð´ÑĳÑĤ",
      "ÑģÑı"
    ],
    [
      "ÑģÑĤÐ°",
      "Ð½ÐµÑĤ"
    ],
    [
      "Ðĳ",
      "Ð°Ñħ"
    ],
    [
      "ÐĳÐ°Ñħ",
      "Ð¾Ð¼"
    ],
    [
      "Ð",
      "¨"
    ],
    [
      "Ð¨",
      "ÐµÐº"
    ],
    [
      "Ð¨ÐµÐº",
      "ÑģÐ¿"
    ],
    [
      "Ð¨ÐµÐºÑģÐ¿",
      "Ð¸"
    ],
    [
      "Ð¨ÐµÐºÑģÐ¿Ð¸",
      "ÑĢÐ¾Ð¼"
    ],
    [
      "ÐĴÐķÐł",
      "ÐĲ"
    ],
    [
      "Ð¡",
      "ÐŀÐĵ"
    ],
    [
      "Ð¡ÐŀÐĵ",
      "ÐĽÐĲ"
    ],
    [
      "Ð¡ÐŀÐĵÐĽÐĲ",
      "Ð¡"
    ],
    [
      "Ð¡ÐŀÐĵÐĽÐĲÐ¡",
      "Ðĺ"
    ],
    [
      "Ð¡ÐŀÐĵÐĽÐĲÐ¡Ðĺ",
      "Ðķ"
    ],
    [
      "ÐĴÐŀÐ",
      "Ľ"
    ],
    [
      "ÐĴÐŀÐĽ",
      "Ðĺ"
    ],
    [
      "Ð¡",
      "ÐŀÐĴÐķ"
    ],
    [
      "Ð¡ÐŀÐĴÐķ",
      "Ð¡"
    ],
    [
      "Ð¡ÐŀÐĴÐķÐ¡",
      "Ð¢Ð¬Ð®"
    ],
    [
      "Ð¡",
      "Ð£"
    ],
    [
      "Ð¡Ð£",
      "Ð©"
    ],
    [
      "Ð¡Ð£Ð©",
      "ÐĿ"
    ],
    [
      "Ð¡Ð£Ð©ÐĿ",
      "ÐŀÐ¡"
    ],
    [
      "Ð¡Ð£Ð©ÐĿÐŀÐ¡",
      "Ð¢Ð¬"
    ],
    [
      "ÐĴÐķÐł",
      "Ð«"
    ],
    [
      "Ð¡",
      "ÐŀÐ¡"
    ],
    [
      "Ð¡ÐŀÐ¡",
      "Ð¢ÐŀÐ"
    ],
    [
      "Ð¡ÐŀÐ¡Ð¢ÐŀÐ",
      "ĺ"
    ],
    [
      "Ð¡ÐŀÐ¡Ð¢ÐŀÐĺ",
      "Ð¢"
    ],
    [
      "Ð¢ÐŀÐ",
      "ľ"
    ],
    [
      "Ð§",
      "Ð¢Ðŀ"
    ],
    [
      "ÐŀÐ",
      "Ŀ"
    ],
    [
      "ÐŀÐĿ",
      "ÐĲ"
    ],
    [
      "ÐŁ",
      "Ðł"
    ],
    [
      "ÐŁÐł",
      "ÐĺÐ"
    ],
    [
      "ÐŁÐłÐĺÐ",
      "Ķ"
    ],
    [
      "ÐŁÐłÐĺÐĶ",
      "ÐĲ"
    ],
    [
      "ÐŁÐłÐĺÐĶÐĲ",
      "ÐģÐ¢"
    ],
    [
      "Ð¢ÐĲ",
      "ÐļÐŀÐĻ"
    ],
    [
      "Ð¡Ðľ",
      "Ð«"
    ],
    [
      "Ð¡ÐľÐ«",
      "Ð¡"
    ],
    [
      "Ð¡ÐľÐ«Ð¡",
      "ÐĽ"
    ],
    [
      "ÐļÐŀÐ",
      "¢"
    ],
    [
      "ÐļÐŀÐ¢",
      "ÐŀÐ"
    ],
    [
      "ÐļÐŀÐ¢ÐŀÐ",
      "ł"
    ],
    [
      "ÐļÐŀÐ¢ÐŀÐł",
      "Ð«"
    ],
    [
      "ÐļÐŀÐ¢ÐŀÐłÐ«",
      "ÐĻ"
    ],
    [
      "Ð£",
      "ÐĿÐĺÐ"
    ],
    [
      "Ð£ÐĿÐĺÐ",
      "§"
    ],
    [
      "Ð£ÐĿÐĺÐ§",
      "Ð¢ÐŀÐ"
    ],
    [
      "Ð£ÐĿÐĺÐ§Ð¢ÐŀÐ",
      "ĸ"
    ],
    [
      "Ð£ÐĿÐĺÐ§Ð¢ÐŀÐĸ",
      "ÐĲ"
    ],
    [
      "Ð£ÐĿÐĺÐ§Ð¢ÐŀÐĸÐĲ",
      "Ðķ"
    ],
    [
      "Ð£ÐĿÐĺÐ§Ð¢ÐŀÐĸÐĲÐķ",
      "Ð¢"
    ],
    [
      "Ð£ÐĿÐĺÐ§Ð¢ÐŀÐĸÐĲÐķÐ¢",
      "Ð¡"
    ],
    [
      "Ð£ÐĿÐĺÐ§Ð¢ÐŀÐĸÐĲÐķÐ¢Ð¡",
      "Ð¯"
    ],
    [
      "Ð¡Ðľ",
      "Ðķ"
    ],
    [
      "Ð¡ÐľÐķ",
      "Ðł"
    ],
    [
      "Ð¡ÐľÐķÐł",
      "Ð¢Ð¬Ð®"
    ],
    [
      "ÐĴ",
      "Ð¢ÐŀÐ"
    ],
    [
      "ÐĴÐ¢ÐŀÐ",
      "ł"
    ],
    [
      "ÐĴÐ¢ÐŀÐł",
      "ÐĲ"
    ],
    [
      "ÐĴÐ¢ÐŀÐłÐĲ",
      "Ð¯"
    ],
    [
      "Ðļ",
      "ÐĿÐĺÐ"
    ],
    [
      "ÐļÐĿÐĺÐ",
      "ĵ"
    ],
    [
      "ÐļÐĿÐĺÐĵ",
      "ÐĲ"
    ],
    [
      "ÐľÐŀÐ",
      "ĺ"
    ],
    [
      "ÐľÐŀÐĺ",
      "Ð¡Ðķ"
    ],
    [
      "ÐľÐŀÐĺÐ¡Ðķ",
      "Ðķ"
    ],
    [
      "ÐľÐŀÐĺÐ¡ÐķÐķ",
      "ÐĴÐĲ"
    ],
    [
      "Ðĺ",
      "Ð¡"
    ],
    [
      "ÐĺÐ¡",
      "Ð¥"
    ],
    [
      "ÐĺÐ¡Ð¥",
      "ÐŀÐĶ"
    ],
    [
      "Ðĵ",
      "ÐĽÐĲ"
    ],
    [
      "ÐĵÐĽÐĲ",
      "ÐĴÐĲ"
    ],
    [
      "Ð¥",
      "Ð¥"
    ],
    [
      "ÐĵÐ¾ÑģÐ¿",
      "Ð¾Ð´Ð°"
    ],
    [
      "Ðĳ",
      "Ð¾Ð³Ð°"
    ],
    [
      "Ð½Ð°",
      "Ð¿ÑĢÐ°"
    ],
    [
      "Ð½Ð°Ð¿ÑĢÐ°",
      "Ñģ"
    ],
    [
      "Ð½Ð°Ð¿ÑĢÐ°Ñģ",
      "Ð½Ð¾"
    ],
    [
      "Ð¾ÑĤ",
      "ÑĨ"
    ],
    [
      "Ð¾ÑĤÑĨ",
      "Ð°"
    ],
    [
      "Ð¼",
      "Ð°ÑĤÑĮ"
    ],
    [
      "ÑĤÐ²Ð¾",
      "Ñİ"
    ],
    [
      "Ð±Ñĭ",
      "Ð»Ð¾"
    ],
    [
      "Ñħ",
      "Ð¾ÑĢ"
    ],
    [
      "ÑħÐ¾ÑĢ",
      "Ð¾"
    ],
    [
      "ÑħÐ¾ÑĢÐ¾",
      "ÑĪ"
    ],
    [
      "ÑħÐ¾ÑĢÐ¾ÑĪ",
      "Ð¾"
    ],
    [
      "Ð¿ÑĢ",
      "Ð¾Ð´"
    ],
    [
      "Ð¿ÑĢÐ¾Ð´",
      "Ð»Ð¸"
    ],
    [
      "Ð¿ÑĢÐ¾Ð´Ð»Ð¸",
      "Ð»Ð¸"
    ],
    [
      "Ð¿ÑĢÐ¾Ð´Ð»Ð¸Ð»Ð¸",
      "Ñģ"
    ],
    [
      "Ð¿ÑĢÐ¾Ð´Ð»Ð¸Ð»Ð¸Ñģ",
      "ÑĮ"
    ],
    [
      "Ð´",
      "Ð½Ð¸"
    ],
    [
      "ÐºÐ¾ÑĤÐ¾",
      "ÑĢÑĥ"
    ],
    [
      "ÐºÐ¾ÑĤÐ¾ÑĢÑĥ",
      "Ñİ"
    ],
    [
      "ÐĵÐ¾ÑģÐ¿",
      "Ð¾Ð´"
    ],
    [
      "ÐĵÐ¾ÑģÐ¿Ð¾Ð´",
      "ÑĮ"
    ],
    [
      "Ðĳ",
      "Ð¾Ð³"
    ],
    [
      "Ð´Ð°",
      "ÑĳÑĤ"
    ],
    [
      "ÑĥÐ±",
      "Ð¸Ð²"
    ],
    [
      "ÑĥÐ±Ð¸Ð²",
      "Ð°Ð¹"
    ],
    [
      "Ðº",
      "ÑĢÐ°"
    ],
    [
      "ÐºÑĢÐ°",
      "Ð´Ð¸"
    ],
    [
      "Ð»",
      "Ð¾Ð¶"
    ],
    [
      "Ð»Ð¾Ð¶",
      "Ð½Ð¾Ð³Ð¾"
    ],
    [
      "Ñģ",
      "Ð²Ð¸Ð´"
    ],
    [
      "ÑģÐ²Ð¸Ð´",
      "ÐµÑĤ"
    ],
    [
      "ÑģÐ²Ð¸Ð´ÐµÑĤ",
      "ÐµÐ»ÑĮ"
    ],
    [
      "ÑģÐ²Ð¸Ð´ÐµÑĤÐµÐ»ÑĮ",
      "ÑģÑĤÐ²Ð°"
    ],
    [
      "Ð¶Ðµ",
      "Ð½Ñĭ"
    ],
    [
      "Ð¸Ð¼",
      "Ñĥ"
    ],
    [
      "Ð¸Ð¼Ñĥ",
      "Ñī"
    ],
    [
      "Ð¸Ð¼ÑĥÑī",
      "ÐµÑģÑĤÐ²Ð°"
    ],
    [
      "ÐĴ",
      "Ðŀ"
    ],
    [
      "ÐĴÐ¡",
      "Ðģ"
    ],
    [
      "ÐĴÐ¡Ðģ",
      "Ðľ"
    ],
    [
      "Ð¥",
      "ÐŀÐ¢"
    ],
    [
      "Ð¥ÐŀÐ¢",
      "Ðĺ"
    ],
    [
      "Ð¥ÐŀÐ¢Ðĺ",
      "Ð¢Ðķ"
    ],
    [
      "Ð§",
      "Ð¢ÐŀÐ"
    ],
    [
      "Ð§Ð¢ÐŀÐ",
      "ĳ"
    ],
    [
      "Ð§Ð¢ÐŀÐĳ",
      "Ð«"
    ],
    [
      "ÐĴÐĲ",
      "ÐľÐĺ"
    ],
    [
      "ÐŁÐŀÐ¡Ð¢Ð£ÐŁ",
      "ÐĲÐĽ"
    ],
    [
      "ÐŁÐŀÐ¡Ð¢Ð£ÐŁÐĲÐĽ",
      "Ðĺ"
    ],
    [
      "ÐĽÐ®ÐĶ",
      "Ðĺ"
    ],
    [
      "ÐŁÐŀÐ¡Ð¢Ð£ÐŁ",
      "ÐĲ"
    ],
    [
      "ÐŁÐŀÐ¡Ð¢Ð£ÐŁÐĲ",
      "ÐĻ"
    ],
    [
      "ÐŁÐŀÐ¡Ð¢Ð£ÐŁÐĲÐĻ",
      "Ð¢Ðķ"
    ],
    [
      "ÐĴ",
      "Ð«"
    ],
    [
      "ÐĿÐĺ",
      "ÐľÐĺ"
    ],
    [
      "ÐĴÐŀÐ",
      "Ĺ"
    ],
    [
      "ÐĴÐŀÐĹ",
      "ÐĽÐ®ÐĳÐĺ"
    ],
    [
      "Ðĳ",
      "ÐĽ"
    ],
    [
      "ÐĳÐĽ",
      "ÐĺÐ"
    ],
    [
      "ÐĳÐĽÐĺÐ",
      "ĸ"
    ],
    [
      "ÐĳÐĽÐĺÐĸ",
      "ÐĿÐķ"
    ],
    [
      "ÐĳÐĽÐĺÐĸÐĿÐķ",
      "ÐĵÐŀ"
    ],
    [
      "Ð¢",
      "ÐĴÐŀÐ"
    ],
    [
      "Ð¢ÐĴÐŀÐ",
      "ķ"
    ],
    [
      "Ð¢ÐĴÐŀÐķ",
      "ÐĵÐŀ"
    ],
    [
      "Ð¡",
      "ÐĲ"
    ],
    [
      "Ð¡ÐĲ",
      "ÐľÐŀÐ"
    ],
    [
      "Ð¡ÐĲÐľÐŀÐ",
      "ĵ"
    ],
    [
      "Ð¡ÐĲÐľÐŀÐĵ",
      "Ðŀ"
    ],
    [
      "Ðľ",
      "ÐĲ"
    ],
    [
      "ÐľÐĲ",
      "Ð¢"
    ],
    [
      "ÐľÐĲÐ¢",
      "Ð¤"
    ],
    [
      "ÐľÐĲÐ¢Ð¤",
      "Ðķ"
    ],
    [
      "ÐľÐĲÐ¢Ð¤Ðķ",
      "Ð¯"
    ],
    [
      "ÐĿÐĺ",
      "ÐļÐŀÐ"
    ],
    [
      "ÐĿÐĺÐļÐŀÐ",
      "ĵ"
    ],
    [
      "ÐĿÐĺÐļÐŀÐĵ",
      "ÐĶ"
    ],
    [
      "ÐĿÐĺÐļÐŀÐĵÐĶ",
      "ÐĲ"
    ],
    [
      "ÐŁ",
      "Ðķ"
    ],
    [
      "ÐŁÐķ",
      "ÐłÐķ"
    ],
    [
      "ÐŁÐķÐłÐķ",
      "Ð¡"
    ],
    [
      "ÐŁÐķÐłÐķÐ¡",
      "Ð¢ÐĲ"
    ],
    [
      "ÐŁÐķÐłÐķÐ¡Ð¢ÐĲ",
      "ÐģÐ¢"
    ],
    [
      "Ð³",
      "Ð¾Ð²Ð¾ÑĢ"
    ],
    [
      "Ð³Ð¾Ð²Ð¾ÑĢ",
      "Ñİ"
    ],
    [
      "Ñı",
      "Ð·Ñĭ"
    ],
    [
      "ÑıÐ·Ñĭ",
      "ÐºÐ°Ð¼Ð¸"
    ],
    [
      "ÑĩÐµÐ»Ð¾Ð²ÐµÑĩ",
      "ÐµÑģ"
    ],
    [
      "ÑĩÐµÐ»Ð¾Ð²ÐµÑĩÐµÑģ",
      "Ðº"
    ],
    [
      "ÑĩÐµÐ»Ð¾Ð²ÐµÑĩÐµÑģÐº",
      "Ð¸Ð¼Ð¸"
    ],
    [
      "Ð°Ð½",
      "Ð³"
    ],
    [
      "Ð°Ð½Ð³",
      "ÐµÐ»ÑĮ"
    ],
    [
      "Ð°Ð½Ð³ÐµÐ»ÑĮ",
      "ÑģÐº"
    ],
    [
      "Ð°Ð½Ð³ÐµÐ»ÑĮÑģÐº",
      "Ð¸Ð¼Ð¸"
    ],
    [
      "Ð¼",
      "ÐµÐ´ÑĮ"
    ],
    [
      "Ð·",
      "Ð²ÐµÐ½"
    ],
    [
      "Ð·Ð²ÐµÐ½",
      "Ñı"
    ],
    [
      "Ð·Ð²ÐµÐ½Ñı",
      "Ñī"
    ],
    [
      "Ð·Ð²ÐµÐ½ÑıÑī",
      "Ð°Ñı"
    ],
    [
      "Ð¿ÑĢ",
      "Ð¾ÑĢ"
    ],
    [
      "Ð¿ÑĢÐ¾ÑĢ",
      "Ð¾Ñĩ"
    ],
    [
      "Ð¿ÑĢÐ¾ÑĢÐ¾Ñĩ",
      "ÐµÑģÑĤÐ²Ð°"
    ],
    [
      "Ð·Ð½Ð°",
      "Ñİ"
    ],
    [
      "Ð²Ñģ",
      "Ðµ"
    ],
    [
      "ÑĤ",
      "Ð°Ð¹"
    ],
    [
      "ÑĤÐ°Ð¹",
      "Ð½Ñĭ"
    ],
    [
      "Ð²ÑģÑı",
      "ÐºÐ¾"
    ],
    [
      "Ð²ÑģÑıÐºÐ¾",
      "Ðµ"
    ],
    [
      "Ð¿",
      "Ð¾Ð·Ð½Ð°"
    ],
    [
      "Ð¿Ð¾Ð·Ð½Ð°",
      "Ð½Ð¸Ðµ"
    ],
    [
      "Ð²Ñģ",
      "Ñİ"
    ],
    [
      "Ð²ÐµÑĢ",
      "Ñĥ"
    ],
    [
      "Ð³Ð¾",
      "ÑĢÑĭ"
    ],
    [
      "Ð¿ÐµÑĢÐµ",
      "ÑģÑĤÐ°Ð²"
    ],
    [
      "Ð¿ÐµÑĢÐµÑģÑĤÐ°Ð²",
      "Ð»"
    ],
    [
      "Ð¿ÐµÑĢÐµÑģÑĤÐ°Ð²Ð»",
      "ÑıÑĤÑĮ"
    ],
    [
      "Ð½Ð¸",
      "ÑĩÑĤÐ¾"
    ],
    [
      "ÑĢÐ°Ð·",
      "Ð´Ð°Ð¼"
    ],
    [
      "Ð¸Ð¼ÐµÐ½Ð¸",
      "Ðµ"
    ],
    [
      "Ð¾ÑĤ",
      "Ð´Ð°Ð¼"
    ],
    [
      "ÑĤÐµÐ»",
      "Ð¾"
    ],
    [
      "Ñģ",
      "Ð¾Ð¶"
    ],
    [
      "ÑģÐ¾Ð¶",
      "Ð¶"
    ],
    [
      "ÑģÐ¾Ð¶Ð¶",
      "ÐµÐ½Ð¸"
    ],
    [
      "ÑģÐ¾Ð¶Ð¶ÐµÐ½Ð¸",
      "Ðµ"
    ],
    [
      "Ð¼",
      "Ð½Ðµ"
    ],
    [
      "Ð½Ð¸",
      "ÐºÐ°ÐºÐ¾Ð¹"
    ],
    [
      "Ð´Ð¾Ð»",
      "Ð³Ð¾"
    ],
    [
      "Ð´Ð¾Ð»Ð³Ð¾",
      "ÑĤÐµÑĢÐ¿"
    ],
    [
      "Ð´Ð¾Ð»Ð³Ð¾ÑĤÐµÑĢÐ¿",
      "Ð¸ÑĤ"
    ],
    [
      "Ð¼Ð¸",
      "Ð»Ð¾"
    ],
    [
      "Ð¼Ð¸Ð»Ð¾",
      "ÑģÐµÑĢÐ´"
    ],
    [
      "Ð¼Ð¸Ð»Ð¾ÑģÐµÑĢÐ´",
      "ÑģÑĤÐ²ÑĥÐµÑĤ"
    ],
    [
      "Ð·Ð°",
      "Ð²Ð¸Ð´"
    ],
    [
      "Ð·Ð°Ð²Ð¸Ð´",
      "ÑĥÐµÑĤ"
    ],
    [
      "Ð³Ð¾ÑĢ",
      "Ð´Ð¸ÑĤÑģÑı"
    ],
    [
      "ÑģÐ²Ð¾",
      "ÐµÐ³Ð¾"
    ],
    [
      "ÑĢÐ°Ð·",
      "Ð´"
    ],
    [
      "ÑĢÐ°Ð·Ð´",
      "ÑĢÐ°"
    ],
    [
      "ÑĢÐ°Ð·Ð´ÑĢÐ°",
      "Ð¶"
    ],
    [
      "ÑĢÐ°Ð·Ð´ÑĢÐ°Ð¶",
      "Ð°ÐµÑĤÑģÑı"
    ],
    [
      "Ð¼",
      "ÑĭÑģÐ»"
    ],
    [
      "Ð¼ÑĭÑģÐ»",
      "Ð¸ÑĤ"
    ],
    [
      "Ð·",
      "Ð»Ð°"
    ],
    [
      "Ð½ÐµÐ¿",
      "ÑĢÐ°Ð²"
    ],
    [
      "Ð½ÐµÐ¿ÑĢÐ°Ð²",
      "Ð´Ðµ"
    ],
    [
      "ÑģÐ¾",
      "ÑĢÐ°Ð´ÑĥÐµÑĤÑģÑı"
    ],
    [
      "Ð¸ÑģÑĤÐ¸",
      "Ð½Ðµ"
    ],
    [
      "ÐĴÑģ",
      "Ñĳ"
    ],
    [
      "Ð¿Ð¾Ðº",
      "ÑĢÑĭ"
    ],
    [
      "Ð¿Ð¾ÐºÑĢÑĭ",
      "Ð²"
    ],
    [
      "Ð¿Ð¾ÐºÑĢÑĭÐ²",
      "Ð°ÐµÑĤ"
    ],
    [
      "Ð²Ñģ",
      "ÐµÐ¼Ñĥ"
    ],
    [
      "Ð²ÐµÑĢ",
      "Ð¸ÑĤ"
    ],
    [
      "Ð²Ñģ",
      "ÐµÐ³Ð¾"
    ],
    [
      "Ð½Ð°",
      "Ð´Ðµ"
    ],
    [
      "Ð½Ð°Ð´Ðµ",
      "ÐµÑĤÑģÑı"
    ],
    [
      "Ð¿ÐµÑĢÐµ",
      "Ð½Ð¾Ñģ"
    ],
    [
      "Ð¿ÐµÑĢÐµÐ½Ð¾Ñģ",
      "Ð¸ÑĤ"
    ],
    [
      "Ð½Ð¸Ðº",
      "Ð¾Ð³Ð´Ð°"
    ],
    [
      "Ð¿ÐµÑĢÐµ",
      "ÑģÑĤÐ°"
    ],
    [
      "Ð¿ÐµÑĢÐµÑģÑĤÐ°",
      "ÑĳÑĤ"
    ],
    [
      "ÑĤ",
      "ÐµÐ¿"
    ],
    [
      "ÑĤÐµÐ¿",
      "ÐµÑĢ"
    ],
    [
      "ÑĤÐµÐ¿ÐµÑĢ",
      "ÑĮ"
    ],
    [
      "Ð¿ÑĢ",
      "ÐµÐ±"
    ],
    [
      "Ð¿ÑĢÐµÐ±",
      "Ñĭ"
    ],
    [
      "Ð¿ÑĢÐµÐ±Ñĭ",
      "Ð²Ð°ÑİÑĤ"
    ],
    [
      "Ñģ",
      "Ð¸Ð¸"
    ],
    [
      "ÑĤÑĢ",
      "Ð¸"
    ],
    [
      "Ð²",
      "Ðµ"
    ],
    [
      "Ð²Ðµ",
      "ÑĢÐ°"
    ],
    [
      "Ð½Ð°Ð´ÐµÐ¶",
      "Ð´Ð°"
    ],
    [
      "ÐŁ",
      "ÐµÑĢ"
    ],
    [
      "ÐŁÐµÑĢ",
      "Ð²Ð¾"
    ],
    [
      "ÐŁÐµÑĢÐ²Ð¾",
      "Ðµ"
    ],
    [
      "Ð¿Ð¾",
      "Ñģ"
    ],
    [
      "Ð¿Ð¾Ñģ",
      "Ð»Ð°"
    ],
    [
      "Ð¿Ð¾ÑģÐ»Ð°",
      "Ð½Ð¸Ðµ"
    ],
    [
      "ÐºÐ¾ÑĢÐ¸Ð½ÑĦÑı",
      "Ð½Ð°"
    ],
    [
      "ÐºÐ¾ÑĢÐ¸Ð½ÑĦÑıÐ½Ð°",
      "Ð¼"
    ],
    [
      "Ð¡",
      "Ð²"
    ],
    [
      "ÐĲ",
      "Ð¿Ð¾ÑģÑĤ"
    ],
    [
      "ÐĲÐ¿Ð¾ÑģÑĤ",
      "Ð¾Ð»"
    ],
    [
      "ÐĲÐ¿Ð¾ÑģÑĤÐ¾Ð»",
      "Ð°"
    ],
    [
      "ÐŁ",
      "Ð°"
    ],
    [
      "ÐŁÐ°",
      "Ð²Ð»Ð°"
    ],
    [
      "ÑĢÐ°Ð·",
      "Ð²ÑĢÐ°"
    ],
    [
      "ÑĢÐ°Ð·Ð²ÑĢÐ°",
      "ÑĤ"
    ],
    [
      "ÑĢÐ°Ð·Ð²ÑĢÐ°ÑĤ",
      "Ð½Ð¸"
    ],
    [
      "ÑĢÐ°Ð·Ð²ÑĢÐ°ÑĤÐ½Ð¸",
      "Ñĩ"
    ],
    [
      "ÑĢÐ°Ð·Ð²ÑĢÐ°ÑĤÐ½Ð¸Ñĩ",
      "Ð°Ð¹"
    ],
    [
      "ÑģÑĤÐ°Ð²",
      "Ð¸ÑĤ"
    ],
    [
      "Ð²Ñģ",
      "ÐµÑħ"
    ],
    [
      "Ð½Ð°",
      "ÑĢÑĥÑĪ"
    ],
    [
      "Ð½Ð°ÑĢÑĥÑĪ",
      "Ð°ÐµÑĤ"
    ],
    [
      "Ð·Ð°",
      "ÐºÐ¾"
    ],
    [
      "Ð·Ð°ÐºÐ¾",
      "Ð½Ð¾Ð²"
    ],
    [
      "ÐºÐ¾ÑĢÐ¸Ð½ÑĦÑı",
      "Ð½Ðµ"
    ],
    [
      "Ð¶Ð¸ÑĤ",
      "ÐµÐ»Ð¸"
    ],
    [
      "Ð³Ð¾ÑĢ",
      "Ð¾Ð´Ð°"
    ],
    [
      "Ðļ",
      "Ð¾ÑĢ"
    ],
    [
      "ÐļÐ¾ÑĢ",
      "Ð¸Ð½ÑĦ"
    ],
    [
      "ÐļÐ¾ÑĢÐ¸Ð½ÑĦ",
      "Ð°"
    ],
    [
      "Ð¢ÐŀÐ",
      "¢"
    ],
    [
      "Ðļ",
      "Ð¢Ðŀ"
    ],
    [
      "ÐŁ",
      "Ðŀ"
    ],
    [
      "ÐĿÐĲ",
      "Ð¡Ð¢ÐŀÐ"
    ],
    [
      "ÐĿÐĲÐ¡Ð¢ÐŀÐ",
      "¯"
    ],
    [
      "ÐĿÐĲÐ¡Ð¢ÐŀÐ¯",
      "Ð©"
    ],
    [
      "ÐĿÐĲÐ¡Ð¢ÐŀÐ¯Ð©",
      "Ðķ"
    ],
    [
      "ÐĿÐĲÐ¡Ð¢ÐŀÐ¯Ð©Ðķ",
      "Ðľ"
    ],
    [
      "ÐĿÐĲÐ¡Ð¢ÐŀÐ¯Ð©ÐķÐľ",
      "Ð£"
    ],
    [
      "ÐŀÐĶ",
      "ÐĿ"
    ],
    [
      "ÐŀÐĶÐĿ",
      "ÐŀÐĵ"
    ],
    [
      "ÐŀÐĶÐĿÐŀÐĵ",
      "Ðŀ"
    ],
    [
      "Ð§",
      "Ðķ"
    ],
    [
      "Ð§Ðķ",
      "ÐĽ"
    ],
    [
      "Ð§ÐķÐĽ",
      "ÐŀÐĴÐķ"
    ],
    [
      "Ð§ÐķÐĽÐŀÐĴÐķ",
      "ÐļÐĲ"
    ],
    [
      "ÐĴÐķ",
      "Ð¡"
    ],
    [
      "ÐĴÐķÐ¡",
      "Ð¬"
    ],
    [
      "ÐľÐĺ",
      "Ðł"
    ],
    [
      "Ð¤",
      "Ðł"
    ],
    [
      "Ð¤Ðł",
      "ÐŀÐ"
    ],
    [
      "Ð¤ÐłÐŀÐ",
      "ľ"
    ],
    [
      "Ð³Ð»Ð°",
      "Ð²Ð½Ñĥ"
    ],
    [
      "Ð³Ð»Ð°Ð²Ð½Ñĥ",
      "Ñİ"
    ],
    [
      "ÑģÑĤ",
      "ÑĢÐ°Ð½Ð¸"
    ],
    [
      "ÑģÑĤÑĢÐ°Ð½Ð¸",
      "ÑĨ"
    ],
    [
      "ÑģÑĤÑĢÐ°Ð½Ð¸ÑĨ",
      "Ñĥ"
    ],
    [
      "ÐºÐ°",
      "ÑĤÐ°Ð»"
    ],
    [
      "ÐºÐ°ÑĤÐ°Ð»",
      "Ð¾Ð³"
    ]
  ],
  "config": {
    "vocab_size": 10000,
    "special_tokens": [
      "<unk>",
      "<pad>",
      "<bos>",
      "<eos>"
    ],
    "unk_token": "<unk>",
    "pad_token": "<pad>",
    "bos_token": "<bos>",
    "eos_token": "<eos>"
  }
}